{
  "version": "1.0",
  "truncation": null,
  "padding": null,
  "added_tokens": [],
  "normalizer": {
    "type": "NFKC"
  },
  "pre_tokenizer": {
    "type": "Whitespace"
  },
  "post_processor": null,
  "decoder": null,
  "model": {
    "type": "BPE",
    "dropout": null,
    "unk_token": "[UNK]",
    "continuing_subword_prefix": null,
    "end_of_word_suffix": null,
    "fuse_unk": false,
    "byte_fallback": false,
    "ignore_merges": false,
    "vocab": {
      "!": 0,
      "\"": 1,
      "#": 2,
      "$": 3,
      "%": 4,
      "&": 5,
      "'": 6,
      "(": 7,
      ")": 8,
      "*": 9,
      "+": 10,
      ",": 11,
      "-": 12,
      ".": 13,
      "/": 14,
      "0": 15,
      "1": 16,
      "2": 17,
      "3": 18,
      "4": 19,
      "5": 20,
      "6": 21,
      "7": 22,
      "8": 23,
      "9": 24,
      ":": 25,
      ";": 26,
      "<": 27,
      "=": 28,
      ">": 29,
      "?": 30,
      "@": 31,
      "A": 32,
      "B": 33,
      "C": 34,
      "D": 35,
      "E": 36,
      "F": 37,
      "G": 38,
      "H": 39,
      "I": 40,
      "J": 41,
      "K": 42,
      "L": 43,
      "M": 44,
      "N": 45,
      "O": 46,
      "P": 47,
      "Q": 48,
      "R": 49,
      "S": 50,
      "T": 51,
      "U": 52,
      "V": 53,
      "W": 54,
      "X": 55,
      "Y": 56,
      "Z": 57,
      "[": 58,
      "\\": 59,
      "]": 60,
      "^": 61,
      "_": 62,
      "`": 63,
      "a": 64,
      "b": 65,
      "c": 66,
      "d": 67,
      "e": 68,
      "f": 69,
      "g": 70,
      "h": 71,
      "i": 72,
      "j": 73,
      "k": 74,
      "l": 75,
      "m": 76,
      "n": 77,
      "o": 78,
      "p": 79,
      "q": 80,
      "r": 81,
      "s": 82,
      "t": 83,
      "u": 84,
      "v": 85,
      "w": 86,
      "x": 87,
      "y": 88,
      "z": 89,
      "{": 90,
      "|": 91,
      "}": 92,
      "~": 93,
      "¡": 94,
      "¢": 95,
      "£": 96,
      "¤": 97,
      "¥": 98,
      "¦": 99,
      "§": 100,
      "©": 101,
      "«": 102,
      "¬": 103,
      "­": 104,
      "®": 105,
      "°": 106,
      "±": 107,
      "¶": 108,
      "·": 109,
      "»": 110,
      "¿": 111,
      "À": 112,
      "Á": 113,
      "Â": 114,
      "Ã": 115,
      "Ä": 116,
      "Å": 117,
      "Æ": 118,
      "Ç": 119,
      "É": 120,
      "Í": 121,
      "Ð": 122,
      "Ô": 123,
      "Ö": 124,
      "×": 125,
      "Ø": 126,
      "Û": 127,
      "Ü": 128,
      "ß": 129,
      "à": 130,
      "á": 131,
      "â": 132,
      "ã": 133,
      "ä": 134,
      "å": 135,
      "æ": 136,
      "ç": 137,
      "è": 138,
      "é": 139,
      "ê": 140,
      "ë": 141,
      "ì": 142,
      "í": 143,
      "î": 144,
      "ï": 145,
      "ñ": 146,
      "ò": 147,
      "ó": 148,
      "ô": 149,
      "õ": 150,
      "ö": 151,
      "÷": 152,
      "ø": 153,
      "ù": 154,
      "ú": 155,
      "û": 156,
      "ü": 157,
      "ý": 158,
      "þ": 159,
      "ÿ": 160,
      "ą": 161,
      "ć": 162,
      "č": 163,
      "ē": 164,
      "ę": 165,
      "Ĝ": 166,
      "Ġ": 167,
      "ħ": 168,
      "Ī": 169,
      "İ": 170,
      "ı": 171,
      "Ļ": 172,
      "Ł": 173,
      "ł": 174,
      "ń": 175,
      "ň": 176,
      "ő": 177,
      "Œ": 178,
      "œ": 179,
      "ŕ": 180,
      "ś": 181,
      "š": 182,
      "ů": 183,
      "Ų": 184,
      "Ÿ": 185,
      "ź": 186,
      "ż": 187,
      "Ž": 188,
      "ž": 189,
      "Ə": 190,
      "ƒ": 191,
      "ȋ": 192,
      "ș": 193,
      "Ȼ": 194,
      "ɋ": 195,
      "ɛ": 196,
      "ɦ": 197,
      "ɵ": 198,
      "ɾ": 199,
      "ʢ": 200,
      "˅": 201,
      "ˆ": 202,
      "ˇ": 203,
      "˻": 204,
      "́": 205,
      "̂": 206,
      "̃": 207,
      "̄": 208,
      "̈": 209,
      "̍": 210,
      "̏": 211,
      "̕": 212,
      "̚": 213,
      "̦": 214,
      "̧": 215,
      "̩": 216,
      "̪": 217,
      "̽": 218,
      "̿": 219,
      "͋": 220,
      "͑": 221,
      "͒": 222,
      "͕": 223,
      "͛": 224,
      "ͤ": 225,
      "ͥ": 226,
      "ͦ": 227,
      "ͨ": 228,
      "ͭ": 229,
      "Ό": 230,
      "Γ": 231,
      "Δ": 232,
      "Ι": 233,
      "Λ": 234,
      "Μ": 235,
      "Ο": 236,
      "Π": 237,
      "Σ": 238,
      "Υ": 239,
      "Ω": 240,
      "α": 241,
      "β": 242,
      "γ": 243,
      "ε": 244,
      "ζ": 245,
      "θ": 246,
      "κ": 247,
      "λ": 248,
      "μ": 249,
      "ν": 250,
      "ο": 251,
      "π": 252,
      "ρ": 253,
      "ς": 254,
      "σ": 255,
      "τ": 256,
      "υ": 257,
      "φ": 258,
      "ψ": 259,
      "ω": 260,
      "ό": 261,
      "І": 262,
      "Љ": 263,
      "А": 264,
      "Б": 265,
      "В": 266,
      "Г": 267,
      "Д": 268,
      "З": 269,
      "И": 270,
      "К": 271,
      "Л": 272,
      "М": 273,
      "Н": 274,
      "О": 275,
      "П": 276,
      "Р": 277,
      "С": 278,
      "Т": 279,
      "Ф": 280,
      "Ц": 281,
      "Э": 282,
      "Ю": 283,
      "а": 284,
      "б": 285,
      "в": 286,
      "г": 287,
      "д": 288,
      "е": 289,
      "ж": 290,
      "з": 291,
      "и": 292,
      "й": 293,
      "к": 294,
      "л": 295,
      "м": 296,
      "н": 297,
      "о": 298,
      "п": 299,
      "р": 300,
      "с": 301,
      "т": 302,
      "у": 303,
      "ф": 304,
      "х": 305,
      "ц": 306,
      "ч": 307,
      "ш": 308,
      "щ": 309,
      "ы": 310,
      "ь": 311,
      "э": 312,
      "ю": 313,
      "я": 314,
      "Ѯ": 315,
      "ѻ": 316,
      "ҙ": 317,
      "ҭ": 318,
      "ӏ": 319,
      "Ӕ": 320,
      "ӝ": 321,
      "ղ": 322,
      "ֵ": 323,
      "א": 324,
      "ג": 325,
      "ד": 326,
      "ו": 327,
      "י": 328,
      "ך": 329,
      "ל": 330,
      "ם": 331,
      "מ": 332,
      "ן": 333,
      "ס": 334,
      "צ": 335,
      "ק": 336,
      "ר": 337,
      "ש": 338,
      "׳": 339,
      "؞": 340,
      "آ": 341,
      "ا": 342,
      "ر": 343,
      "س": 344,
      "ل": 345,
      "م": 346,
      "ن": 347,
      "و": 348,
      "ِ": 349,
      "ڜ": 350,
      "ک": 351,
      "ڭ": 352,
      "گ": 353,
      "ی": 354,
      "ۍ": 355,
      "ۚ": 356,
      "۬": 357,
      "܆": 358,
      "ܲ": 359,
      "ܶ": 360,
      "ܷ": 361,
      "ޡ": 362,
      "ޯ": 363,
      "߂": 364,
      "ߖ": 365,
      "߻": 366,
      "ऌ": 367,
      "क": 368,
      "ख": 369,
      "ग": 370,
      "घ": 371,
      "ङ": 372,
      "च": 373,
      "छ": 374,
      "ज": 375,
      "झ": 376,
      "ञ": 377,
      "ट": 378,
      "ठ": 379,
      "ड": 380,
      "ढ": 381,
      "ण": 382,
      "त": 383,
      "थ": 384,
      "द": 385,
      "ध": 386,
      "न": 387,
      "प": 388,
      "फ": 389,
      "ब": 390,
      "भ": 391,
      "म": 392,
      "य": 393,
      "र": 394,
      "ऱ": 395,
      "ल": 396,
      "ळ": 397,
      "व": 398,
      "श": 399,
      "ष": 400,
      "स": 401,
      "ह": 402,
      "़": 403,
      "ा": 404,
      "ि": 405,
      "ी": 406,
      "ृ": 407,
      "ॄ": 408,
      "े": 409,
      "्": 410,
      "ॡ": 411,
      "०": 412,
      "९": 413,
      "ॹ": 414,
      "ॻ": 415,
      "ॼ": 416,
      "ॾ": 417,
      "ॿ": 418,
      "අ": 419,
      "ග": 420,
      "ඵ": 421,
      "ය": 422,
      "ර": 423,
      "ල": 424,
      "ව": 425,
      "්": 426,
      "ก": 427,
      "์": 428,
      "ည": 429,
      "တ": 430,
      "န": 431,
      "ပ": 432,
      "ာ": 433,
      "ေ": 434,
      "်": 435,
      "ြ": 436,
      "ᅲ": 437,
      "ệ": 438,
      "ỏ": 439,
      "ὤ": 440,
      "​": 441,
      "‌": 442,
      "‍": 443,
      "‎": 444,
      "‏": 445,
      "‐": 446,
      "‒": 447,
      "–": 448,
      "—": 449,
      "‘": 450,
      "’": 451,
      "‚": 452,
      "“": 453,
      "”": 454,
      "„": 455,
      "†": 456,
      "‡": 457,
      "•": 458,
      "‪": 459,
      "′": 460,
      "‹": 461,
      "›": 462,
      "※": 463,
      "‽": 464,
      "⁄": 465,
      "⁠": 466,
      "€": 467,
      "₹": 468,
      "⃣": 469,
      "←": 470,
      "↑": 471,
      "→": 472,
      "↓": 473,
      "↔": 474,
      "↩": 475,
      "↪": 476,
      "↳": 477,
      "↵": 478,
      "⇧": 479,
      "∀": 480,
      "∃": 481,
      "∆": 482,
      "∇": 483,
      "∈": 484,
      "∉": 485,
      "∑": 486,
      "−": 487,
      "∘": 488,
      "√": 489,
      "∞": 490,
      "∠": 491,
      "∪": 492,
      "∴": 493,
      "≈": 494,
      "≠": 495,
      "≡": 496,
      "≣": 497,
      "≤": 498,
      "≥": 499,
      "⊆": 500,
      "⊕": 501,
      "⊗": 502,
      "⊤": 503,
      "⊼": 504,
      "⊽": 505,
      "⋅": 506,
      "⋮": 507,
      "⋯": 508,
      "⋱": 509,
      "⌘": 510,
      "⌙": 511,
      "⌥": 512,
      "⍒": 513,
      "⍙": 514,
      "⍝": 515,
      "⏎": 516,
      "⏩": 517,
      "⏭": 518,
      "⏮": 519,
      "⏳": 520,
      "␊": 521,
      "␍": 522,
      "─": 523,
      "━": 524,
      "│": 525,
      "┃": 526,
      "┄": 527,
      "┊": 528,
      "┌": 529,
      "┐": 530,
      "└": 531,
      "┘": 532,
      "├": 533,
      "┤": 534,
      "┬": 535,
      "┴": 536,
      "┼": 537,
      "═": 538,
      "║": 539,
      "╒": 540,
      "╔": 541,
      "╕": 542,
      "╗": 543,
      "╚": 544,
      "╝": 545,
      "╞": 546,
      "╡": 547,
      "╤": 548,
      "╪": 549,
      "╭": 550,
      "╮": 551,
      "╯": 552,
      "╰": 553,
      "╷": 554,
      "╻": 555,
      "╼": 556,
      "▁": 557,
      "█": 558,
      "▉": 559,
      "▏": 560,
      "░": 561,
      "■": 562,
      "▲": 563,
      "△": 564,
      "▶": 565,
      "▸": 566,
      "►": 567,
      "▼": 568,
      "▽": 569,
      "◀": 570,
      "◂": 571,
      "○": 572,
      "●": 573,
      "◢": 574,
      "◤": 575,
      "☁": 576,
      "☂": 577,
      "☃": 578,
      "★": 579,
      "☆": 580,
      "☐": 581,
      "☑": 582,
      "☝": 583,
      "☹": 584,
      "☺": 585,
      "☼": 586,
      "♀": 587,
      "♂": 588,
      "♥": 589,
      "♦": 590,
      "⚠": 591,
      "⚡": 592,
      "⚫": 593,
      "✂": 594,
      "✅": 595,
      "✋": 596,
      "✌": 597,
      "✓": 598,
      "✔": 599,
      "✕": 600,
      "✖": 601,
      "✗": 602,
      "✘": 603,
      "✚": 604,
      "✨": 605,
      "✭": 606,
      "✹": 607,
      "✽": 608,
      "❌": 609,
      "❓": 610,
      "❔": 611,
      "❤": 612,
      "❯": 613,
      "❱": 614,
      "➔": 615,
      "➜": 616,
      "➡": 617,
      "➤": 618,
      "➩": 619,
      "⟩": 620,
      "⟫": 621,
      "⟶": 622,
      "⟺": 623,
      "⠀": 624,
      "⠁": 625,
      "⠂": 626,
      "⠇": 627,
      "⠉": 628,
      "⠋": 629,
      "⠒": 630,
      "⠖": 631,
      "⠙": 632,
      "⠚": 633,
      "⠞": 634,
      "⠧": 635,
      "⠴": 636,
      "⡆": 637,
      "⡇": 638,
      "⡞": 639,
      "⡤": 640,
      "⡼": 641,
      "⢀": 642,
      "⣀": 643,
      "⣠": 644,
      "⣯": 645,
      "⣷": 646,
      "⣸": 647,
      "⣽": 648,
      "⣾": 649,
      "⤷": 650,
      "⧗": 651,
      "⨯": 652,
      "⬅": 653,
      "⭐": 654,
      "⭕": 655,
      "⸨": 656,
      "⸩": 657,
      "、": 658,
      "。": 659,
      "《": 660,
      "》": 661,
      "「": 662,
      "」": 663,
      "【": 664,
      "】": 665,
      "こ": 666,
      "す": 667,
      "で": 668,
      "な": 669,
      "に": 670,
      "の": 671,
      "は": 672,
      "み": 673,
      "れ": 674,
      "゚": 675,
      "ァ": 676,
      "ア": 677,
      "イ": 678,
      "ェ": 679,
      "カ": 680,
      "ク": 681,
      "コ": 682,
      "シ": 683,
      "ジ": 684,
      "ス": 685,
      "ソ": 686,
      "タ": 687,
      "ダ": 688,
      "ッ": 689,
      "ツ": 690,
      "テ": 691,
      "ト": 692,
      "ド": 693,
      "ニ": 694,
      "ノ": 695,
      "バ": 696,
      "フ": 697,
      "プ": 698,
      "ポ": 699,
      "ミ": 700,
      "メ": 701,
      "ョ": 702,
      "ラ": 703,
      "リ": 704,
      "ル": 705,
      "レ": 706,
      "ン": 707,
      "・": 708,
      "ー": 709,
      "㜆": 710,
      "一": 711,
      "万": 712,
      "三": 713,
      "上": 714,
      "下": 715,
      "不": 716,
      "与": 717,
      "专": 718,
      "且": 719,
      "世": 720,
      "业": 721,
      "东": 722,
      "丢": 723,
      "两": 724,
      "严": 725,
      "个": 726,
      "中": 727,
      "串": 728,
      "临": 729,
      "为": 730,
      "主": 731,
      "举": 732,
      "久": 733,
      "么": 734,
      "义": 735,
      "之": 736,
      "乎": 737,
      "九": 738,
      "也": 739,
      "习": 740,
      "乱": 741,
      "了": 742,
      "予": 743,
      "事": 744,
      "二": 745,
      "于": 746,
      "云": 747,
      "互": 748,
      "五": 749,
      "些": 750,
      "交": 751,
      "产": 752,
      "享": 753,
      "京": 754,
      "亮": 755,
      "人": 756,
      "什": 757,
      "仅": 758,
      "今": 759,
      "介": 760,
      "仍": 761,
      "从": 762,
      "仓": 763,
      "他": 764,
      "付": 765,
      "代": 766,
      "令": 767,
      "以": 768,
      "们": 769,
      "仰": 770,
      "件": 771,
      "价": 772,
      "任": 773,
      "份": 774,
      "仿": 775,
      "企": 776,
      "休": 777,
      "优": 778,
      "伙": 779,
      "会": 780,
      "伟": 781,
      "传": 782,
      "伴": 783,
      "伸": 784,
      "似": 785,
      "但": 786,
      "位": 787,
      "低": 788,
      "住": 789,
      "体": 790,
      "何": 791,
      "余": 792,
      "佛": 793,
      "作": 794,
      "你": 795,
      "佬": 796,
      "使": 797,
      "例": 798,
      "供": 799,
      "依": 800,
      "侧": 801,
      "便": 802,
      "俘": 803,
      "保": 804,
      "信": 805,
      "俩": 806,
      "修": 807,
      "個": 808,
      "倍": 809,
      "候": 810,
      "值": 811,
      "假": 812,
      "偏": 813,
      "做": 814,
      "停": 815,
      "偶": 816,
      "傅": 817,
      "储": 818,
      "像": 819,
      "允": 820,
      "元": 821,
      "充": 822,
      "先": 823,
      "光": 824,
      "克": 825,
      "免": 826,
      "入": 827,
      "全": 828,
      "八": 829,
      "公": 830,
      "六": 831,
      "共": 832,
      "关": 833,
      "其": 834,
      "具": 835,
      "典": 836,
      "兼": 837,
      "内": 838,
      "册": 839,
      "再": 840,
      "冒": 841,
      "写": 842,
      "冲": 843,
      "决": 844,
      "况": 845,
      "冷": 846,
      "准": 847,
      "减": 848,
      "凝": 849,
      "几": 850,
      "凭": 851,
      "出": 852,
      "击": 853,
      "函": 854,
      "刀": 855,
      "分": 856,
      "切": 857,
      "划": 858,
      "列": 859,
      "则": 860,
      "刚": 861,
      "创": 862,
      "初": 863,
      "删": 864,
      "判": 865,
      "利": 866,
      "别": 867,
      "到": 868,
      "制": 869,
      "刷": 870,
      "刻": 871,
      "前": 872,
      "剥": 873,
      "剩": 874,
      "剪": 875,
      "副": 876,
      "力": 877,
      "办": 878,
      "功": 879,
      "加": 880,
      "务": 881,
      "动": 882,
      "助": 883,
      "势": 884,
      "勉": 885,
      "匀": 886,
      "包": 887,
      "化": 888,
      "北": 889,
      "匹": 890,
      "区": 891,
      "匿": 892,
      "十": 893,
      "千": 894,
      "升": 895,
      "午": 896,
      "半": 897,
      "协": 898,
      "单": 899,
      "南": 900,
      "占": 901,
      "卡": 902,
      "印": 903,
      "即": 904,
      "却": 905,
      "卷": 906,
      "历": 907,
      "压": 908,
      "原": 909,
      "去": 910,
      "参": 911,
      "又": 912,
      "及": 913,
      "友": 914,
      "双": 915,
      "反": 916,
      "发": 917,
      "取": 918,
      "受": 919,
      "变": 920,
      "口": 921,
      "句": 922,
      "另": 923,
      "只": 924,
      "叫": 925,
      "可": 926,
      "台": 927,
      "史": 928,
      "右": 929,
      "号": 930,
      "各": 931,
      "合": 932,
      "同": 933,
      "名": 934,
      "后": 935,
      "向": 936,
      "吗": 937,
      "吞": 938,
      "否": 939,
      "吧": 940,
      "含": 941,
      "听": 942,
      "启": 943,
      "告": 944,
      "员": 945,
      "呢": 946,
      "周": 947,
      "味": 948,
      "命": 949,
      "和": 950,
      "咱": 951,
      "响": 952,
      "哥": 953,
      "哪": 954,
      "唤": 955,
      "唯": 956,
      "商": 957,
      "啊": 958,
      "啥": 959,
      "啦": 960,
      "善": 961,
      "嗎": 962,
      "器": 963,
      "噬": 964,
      "四": 965,
      "回": 966,
      "因": 967,
      "团": 968,
      "园": 969,
      "困": 970,
      "围": 971,
      "固": 972,
      "国": 973,
      "图": 974,
      "圖": 975,
      "在": 976,
      "地": 977,
      "圳": 978,
      "场": 979,
      "址": 980,
      "均": 981,
      "坊": 982,
      "坑": 983,
      "块": 984,
      "坛": 985,
      "型": 986,
      "域": 987,
      "基": 988,
      "堆": 989,
      "塞": 990,
      "填": 991,
      "境": 992,
      "增": 993,
      "声": 994,
      "处": 995,
      "备": 996,
      "复": 997,
      "外": 998,
      "多": 999,
      "夜": 1000,
      "够": 1001,
      "大": 1002,
      "天": 1003,
      "太": 1004,
      "失": 1005,
      "头": 1006,
      "夹": 1007,
      "奇": 1008,
      "奔": 1009,
      "套": 1010,
      "好": 1011,
      "如": 1012,
      "妥": 1013,
      "姆": 1014,
      "始": 1015,
      "姓": 1016,
      "委": 1017,
      "姿": 1018,
      "子": 1019,
      "字": 1020,
      "存": 1021,
      "学": 1022,
      "宁": 1023,
      "它": 1024,
      "安": 1025,
      "完": 1026,
      "官": 1027,
      "定": 1028,
      "实": 1029,
      "実": 1030,
      "审": 1031,
      "客": 1032,
      "家": 1033,
      "容": 1034,
      "宽": 1035,
      "宿": 1036,
      "密": 1037,
      "察": 1038,
      "寸": 1039,
      "对": 1040,
      "导": 1041,
      "対": 1042,
      "封": 1043,
      "射": 1044,
      "将": 1045,
      "小": 1046,
      "少": 1047,
      "尔": 1048,
      "尚": 1049,
      "尝": 1050,
      "尤": 1051,
      "就": 1052,
      "尺": 1053,
      "尼": 1054,
      "尽": 1055,
      "尾": 1056,
      "局": 1057,
      "层": 1058,
      "屏": 1059,
      "展": 1060,
      "属": 1061,
      "山": 1062,
      "屼": 1063,
      "峰": 1064,
      "峻": 1065,
      "崩": 1066,
      "嵌": 1067,
      "州": 1068,
      "工": 1069,
      "左": 1070,
      "巨": 1071,
      "差": 1072,
      "己": 1073,
      "已": 1074,
      "布": 1075,
      "希": 1076,
      "带": 1077,
      "帮": 1078,
      "常": 1079,
      "幕": 1080,
      "干": 1081,
      "平": 1082,
      "年": 1083,
      "并": 1084,
      "幻": 1085,
      "广": 1086,
      "序": 1087,
      "库": 1088,
      "应": 1089,
      "底": 1090,
      "度": 1091,
      "延": 1092,
      "建": 1093,
      "开": 1094,
      "异": 1095,
      "弄": 1096,
      "式": 1097,
      "引": 1098,
      "张": 1099,
      "弱": 1100,
      "張": 1101,
      "弹": 1102,
      "强": 1103,
      "归": 1104,
      "当": 1105,
      "录": 1106,
      "形": 1107,
      "影": 1108,
      "往": 1109,
      "径": 1110,
      "待": 1111,
      "很": 1112,
      "得": 1113,
      "御": 1114,
      "循": 1115,
      "微": 1116,
      "德": 1117,
      "心": 1118,
      "必": 1119,
      "志": 1120,
      "忙": 1121,
      "快": 1122,
      "念": 1123,
      "忽": 1124,
      "怀": 1125,
      "态": 1126,
      "怎": 1127,
      "怕": 1128,
      "思": 1129,
      "性": 1130,
      "怪": 1131,
      "总": 1132,
      "怿": 1133,
      "恢": 1134,
      "息": 1135,
      "恳": 1136,
      "患": 1137,
      "您": 1138,
      "悬": 1139,
      "情": 1140,
      "惑": 1141,
      "想": 1142,
      "意": 1143,
      "感": 1144,
      "慢": 1145,
      "懂": 1146,
      "成": 1147,
      "我": 1148,
      "或": 1149,
      "截": 1150,
      "戳": 1151,
      "户": 1152,
      "所": 1153,
      "手": 1154,
      "才": 1155,
      "打": 1156,
      "托": 1157,
      "执": 1158,
      "扩": 1159,
      "扫": 1160,
      "扭": 1161,
      "扰": 1162,
      "批": 1163,
      "找": 1164,
      "承": 1165,
      "技": 1166,
      "把": 1167,
      "抓": 1168,
      "抖": 1169,
      "抛": 1170,
      "択": 1171,
      "护": 1172,
      "报": 1173,
      "抱": 1174,
      "抽": 1175,
      "担": 1176,
      "拉": 1177,
      "拒": 1178,
      "拟": 1179,
      "拡": 1180,
      "拥": 1181,
      "拦": 1182,
      "择": 1183,
      "括": 1184,
      "拷": 1185,
      "拼": 1186,
      "拿": 1187,
      "持": 1188,
      "挂": 1189,
      "指": 1190,
      "按": 1191,
      "挥": 1192,
      "捉": 1193,
      "捕": 1194,
      "损": 1195,
      "换": 1196,
      "据": 1197,
      "捷": 1198,
      "掉": 1199,
      "排": 1200,
      "接": 1201,
      "控": 1202,
      "推": 1203,
      "描": 1204,
      "提": 1205,
      "插": 1206,
      "搜": 1207,
      "搞": 1208,
      "搭": 1209,
      "携": 1210,
      "摘": 1211,
      "播": 1212,
      "操": 1213,
      "擎": 1214,
      "支": 1215,
      "收": 1216,
      "改": 1217,
      "攻": 1218,
      "放": 1219,
      "故": 1220,
      "效": 1221,
      "教": 1222,
      "数": 1223,
      "整": 1224,
      "文": 1225,
      "料": 1226,
      "断": 1227,
      "新": 1228,
      "方": 1229,
      "旁": 1230,
      "无": 1231,
      "既": 1232,
      "日": 1233,
      "旧": 1234,
      "时": 1235,
      "明": 1236,
      "易": 1237,
      "星": 1238,
      "映": 1239,
      "春": 1240,
      "是": 1241,
      "昵": 1242,
      "显": 1243,
      "普": 1244,
      "景": 1245,
      "暂": 1246,
      "暴": 1247,
      "更": 1248,
      "曾": 1249,
      "替": 1250,
      "最": 1251,
      "月": 1252,
      "有": 1253,
      "服": 1254,
      "望": 1255,
      "期": 1256,
      "未": 1257,
      "末": 1258,
      "本": 1259,
      "术": 1260,
      "机": 1261,
      "杀": 1262,
      "杂": 1263,
      "权": 1264,
      "束": 1265,
      "条": 1266,
      "来": 1267,
      "杭": 1268,
      "板": 1269,
      "极": 1270,
      "构": 1271,
      "析": 1272,
      "果": 1273,
      "架": 1274,
      "某": 1275,
      "染": 1276,
      "查": 1277,
      "标": 1278,
      "栈": 1279,
      "校": 1280,
      "样": 1281,
      "核": 1282,
      "根": 1283,
      "格": 1284,
      "框": 1285,
      "案": 1286,
      "档": 1287,
      "桶": 1288,
      "梳": 1289,
      "检": 1290,
      "楚": 1291,
      "概": 1292,
      "槽": 1293,
      "模": 1294,
      "機": 1295,
      "檔": 1296,
      "次": 1297,
      "欧": 1298,
      "款": 1299,
      "歉": 1300,
      "止": 1301,
      "正": 1302,
      "此": 1303,
      "步": 1304,
      "武": 1305,
      "死": 1306,
      "殊": 1307,
      "段": 1308,
      "毁": 1309,
      "每": 1310,
      "比": 1311,
      "毫": 1312,
      "气": 1313,
      "永": 1314,
      "求": 1315,
      "汉": 1316,
      "池": 1317,
      "汾": 1318,
      "没": 1319,
      "治": 1320,
      "泄": 1321,
      "法": 1322,
      "泛": 1323,
      "波": 1324,
      "泥": 1325,
      "注": 1326,
      "洒": 1327,
      "洞": 1328,
      "活": 1329,
      "流": 1330,
      "浅": 1331,
      "测": 1332,
      "浏": 1333,
      "浣": 1334,
      "浮": 1335,
      "海": 1336,
      "消": 1337,
      "深": 1338,
      "添": 1339,
      "清": 1340,
      "済": 1341,
      "温": 1342,
      "渲": 1343,
      "游": 1344,
      "溃": 1345,
      "源": 1346,
      "溢": 1347,
      "滑": 1348,
      "滚": 1349,
      "满": 1350,
      "滤": 1351,
      "滴": 1352,
      "漂": 1353,
      "漏": 1354,
      "漢": 1355,
      "潜": 1356,
      "灯": 1357,
      "灵": 1358,
      "点": 1359,
      "為": 1360,
      "烦": 1361,
      "热": 1362,
      "無": 1363,
      "然": 1364,
      "照": 1365,
      "煮": 1366,
      "熔": 1367,
      "爆": 1368,
      "爬": 1369,
      "爱": 1370,
      "父": 1371,
      "片": 1372,
      "版": 1373,
      "牌": 1374,
      "物": 1375,
      "特": 1376,
      "犲": 1377,
      "状": 1378,
      "独": 1379,
      "狼": 1380,
      "猜": 1381,
      "猫": 1382,
      "率": 1383,
      "玬": 1384,
      "环": 1385,
      "现": 1386,
      "理": 1387,
      "琴": 1388,
      "璘": 1389,
      "甚": 1390,
      "生": 1391,
      "用": 1392,
      "由": 1393,
      "申": 1394,
      "电": 1395,
      "画": 1396,
      "畅": 1397,
      "界": 1398,
      "留": 1399,
      "略": 1400,
      "疑": 1401,
      "痕": 1402,
      "登": 1403,
      "白": 1404,
      "百": 1405,
      "的": 1406,
      "监": 1407,
      "盒": 1408,
      "盖": 1409,
      "盘": 1410,
      "目": 1411,
      "直": 1412,
      "相": 1413,
      "省": 1414,
      "看": 1415,
      "真": 1416,
      "眠": 1417,
      "眼": 1418,
      "着": 1419,
      "睒": 1420,
      "知": 1421,
      "短": 1422,
      "码": 1423,
      "研": 1424,
      "础": 1425,
      "确": 1426,
      "碰": 1427,
      "示": 1428,
      "社": 1429,
      "神": 1430,
      "禁": 1431,
      "离": 1432,
      "私": 1433,
      "秋": 1434,
      "种": 1435,
      "科": 1436,
      "秒": 1437,
      "租": 1438,
      "积": 1439,
      "称": 1440,
      "移": 1441,
      "程": 1442,
      "稍": 1443,
      "稳": 1444,
      "究": 1445,
      "空": 1446,
      "突": 1447,
      "窗": 1448,
      "立": 1449,
      "站": 1450,
      "章": 1451,
      "端": 1452,
      "笑": 1453,
      "笔": 1454,
      "笘": 1455,
      "符": 1456,
      "第": 1457,
      "等": 1458,
      "答": 1459,
      "策": 1460,
      "筛": 1461,
      "签": 1462,
      "简": 1463,
      "算": 1464,
      "管": 1465,
      "箭": 1466,
      "箱": 1467,
      "篇": 1468,
      "类": 1469,
      "精": 1470,
      "系": 1471,
      "素": 1472,
      "索": 1473,
      "紧": 1474,
      "累": 1475,
      "細": 1476,
      "統": 1477,
      "繁": 1478,
      "约": 1479,
      "级": 1480,
      "纫": 1481,
      "纯": 1482,
      "线": 1483,
      "练": 1484,
      "组": 1485,
      "细": 1486,
      "织": 1487,
      "终": 1488,
      "经": 1489,
      "绑": 1490,
      "结": 1491,
      "给": 1492,
      "络": 1493,
      "绝": 1494,
      "统": 1495,
      "继": 1496,
      "续": 1497,
      "维": 1498,
      "综": 1499,
      "缀": 1500,
      "缓": 1501,
      "编": 1502,
      "缩": 1503,
      "缺": 1504,
      "网": 1505,
      "置": 1506,
      "署": 1507,
      "美": 1508,
      "群": 1509,
      "翻": 1510,
      "耀": 1511,
      "老": 1512,
      "考": 1513,
      "者": 1514,
      "而": 1515,
      "耗": 1516,
      "聊": 1517,
      "联": 1518,
      "聚": 1519,
      "肯": 1520,
      "背": 1521,
      "能": 1522,
      "脏": 1523,
      "脑": 1524,
      "脚": 1525,
      "腻": 1526,
      "自": 1527,
      "至": 1528,
      "致": 1529,
      "般": 1530,
      "良": 1531,
      "艾": 1532,
      "节": 1533,
      "芯": 1534,
      "花": 1535,
      "苏": 1536,
      "若": 1537,
      "英": 1538,
      "范": 1539,
      "草": 1540,
      "荐": 1541,
      "获": 1542,
      "菜": 1543,
      "萌": 1544,
      "落": 1545,
      "蓝": 1546,
      "薛": 1547,
      "藏": 1548,
      "虑": 1549,
      "虚": 1550,
      "虫": 1551,
      "虽": 1552,
      "螢": 1553,
      "衆": 1554,
      "行": 1555,
      "街": 1556,
      "衡": 1557,
      "表": 1558,
      "衷": 1559,
      "被": 1560,
      "装": 1561,
      "裤": 1562,
      "西": 1563,
      "要": 1564,
      "覆": 1565,
      "见": 1566,
      "观": 1567,
      "规": 1568,
      "视": 1569,
      "览": 1570,
      "觉": 1571,
      "角": 1572,
      "解": 1573,
      "触": 1574,
      "言": 1575,
      "詳": 1576,
      "語": 1577,
      "警": 1578,
      "计": 1579,
      "订": 1580,
      "认": 1581,
      "讨": 1582,
      "让": 1583,
      "议": 1584,
      "讯": 1585,
      "记": 1586,
      "许": 1587,
      "论": 1588,
      "设": 1589,
      "访": 1590,
      "证": 1591,
      "识": 1592,
      "诉": 1593,
      "词": 1594,
      "译": 1595,
      "试": 1596,
      "话": 1597,
      "询": 1598,
      "该": 1599,
      "详": 1600,
      "语": 1601,
      "误": 1602,
      "说": 1603,
      "请": 1604,
      "诸": 1605,
      "读": 1606,
      "谁": 1607,
      "调": 1608,
      "谅": 1609,
      "谢": 1610,
      "象": 1611,
      "貌": 1612,
      "贝": 1613,
      "负": 1614,
      "责": 1615,
      "败": 1616,
      "账": 1617,
      "货": 1618,
      "质": 1619,
      "贴": 1620,
      "费": 1621,
      "资": 1622,
      "赋": 1623,
      "赏": 1624,
      "赖": 1625,
      "赛": 1626,
      "走": 1627,
      "赵": 1628,
      "起": 1629,
      "超": 1630,
      "越": 1631,
      "足": 1632,
      "跑": 1633,
      "跟": 1634,
      "跨": 1635,
      "路": 1636,
      "跳": 1637,
      "踢": 1638,
      "踪": 1639,
      "身": 1640,
      "车": 1641,
      "转": 1642,
      "轮": 1643,
      "软": 1644,
      "载": 1645,
      "较": 1646,
      "辑": 1647,
      "输": 1648,
      "边": 1649,
      "达": 1650,
      "迁": 1651,
      "过": 1652,
      "运": 1653,
      "近": 1654,
      "返": 1655,
      "还": 1656,
      "这": 1657,
      "进": 1658,
      "远": 1659,
      "违": 1660,
      "连": 1661,
      "迟": 1662,
      "述": 1663,
      "迷": 1664,
      "迹": 1665,
      "追": 1666,
      "退": 1667,
      "送": 1668,
      "适": 1669,
      "选": 1670,
      "透": 1671,
      "递": 1672,
      "途": 1673,
      "逗": 1674,
      "通": 1675,
      "速": 1676,
      "造": 1677,
      "逻": 1678,
      "遇": 1679,
      "遍": 1680,
      "道": 1681,
      "遗": 1682,
      "選": 1683,
      "遺": 1684,
      "避": 1685,
      "那": 1686,
      "邮": 1687,
      "郝": 1688,
      "部": 1689,
      "都": 1690,
      "配": 1691,
      "酒": 1692,
      "醒": 1693,
      "采": 1694,
      "释": 1695,
      "里": 1696,
      "重": 1697,
      "野": 1698,
      "量": 1699,
      "鈴": 1700,
      "鉴": 1701,
      "鐣": 1702,
      "针": 1703,
      "钟": 1704,
      "钩": 1705,
      "钮": 1706,
      "链": 1707,
      "销": 1708,
      "锁": 1709,
      "错": 1710,
      "锛": 1711,
      "键": 1712,
      "镜": 1713,
      "长": 1714,
      "闪": 1715,
      "闭": 1716,
      "问": 1717,
      "闲": 1718,
      "间": 1719,
      "阅": 1720,
      "队": 1721,
      "防": 1722,
      "阶": 1723,
      "阻": 1724,
      "阿": 1725,
      "附": 1726,
      "际": 1727,
      "降": 1728,
      "限": 1729,
      "除": 1730,
      "随": 1731,
      "隐": 1732,
      "隔": 1733,
      "难": 1734,
      "雅": 1735,
      "集": 1736,
      "零": 1737,
      "需": 1738,
      "霜": 1739,
      "露": 1740,
      "静": 1741,
      "非": 1742,
      "靠": 1743,
      "面": 1744,
      "音": 1745,
      "韵": 1746,
      "页": 1747,
      "顶": 1748,
      "项": 1749,
      "顺": 1750,
      "须": 1751,
      "顿": 1752,
      "预": 1753,
      "频": 1754,
      "题": 1755,
      "额": 1756,
      "饥": 1757,
      "饿": 1758,
      "首": 1759,
      "験": 1760,
      "马": 1761,
      "驱": 1762,
      "验": 1763,
      "骤": 1764,
      "體": 1765,
      "高": 1766,
      "鲁": 1767,
      "麻": 1768,
      "黄": 1769,
      "黏": 1770,
      "黑": 1771,
      "默": 1772,
      "鼠": 1773,
      "龄": 1774,
      "ꮰ": 1775,
      "가": 1776,
      "값": 1777,
      "거": 1778,
      "공": 1779,
      "그": 1780,
      "글": 1781,
      "기": 1782,
      "까": 1783,
      "깨": 1784,
      "나": 1785,
      "니": 1786,
      "다": 1787,
      "동": 1788,
      "뒤": 1789,
      "등": 1790,
      "딜": 1791,
      "레": 1792,
      "력": 1793,
      "로": 1794,
      "록": 1795,
      "류": 1796,
      "를": 1797,
      "리": 1798,
      "립": 1799,
      "만": 1800,
      "메": 1801,
      "멘": 1802,
      "미": 1803,
      "밀": 1804,
      "박": 1805,
      "받": 1806,
      "버": 1807,
      "번": 1808,
      "복": 1809,
      "비": 1810,
      "빈": 1811,
      "상": 1812,
      "설": 1813,
      "성": 1814,
      "세": 1815,
      "션": 1816,
      "셨": 1817,
      "습": 1818,
      "실": 1819,
      "아": 1820,
      "않": 1821,
      "았": 1822,
      "에": 1823,
      "영": 1824,
      "오": 1825,
      "요": 1826,
      "원": 1827,
      "위": 1828,
      "을": 1829,
      "이": 1830,
      "인": 1831,
      "일": 1832,
      "입": 1833,
      "자": 1834,
      "재": 1835,
      "정": 1836,
      "존": 1837,
      "종": 1838,
      "중": 1839,
      "지": 1840,
      "진": 1841,
      "처": 1842,
      "캡": 1843,
      "테": 1844,
      "튼": 1845,
      "틀": 1846,
      "패": 1847,
      "페": 1848,
      "폼": 1849,
      "품": 1850,
      "하": 1851,
      "한": 1852,
      "합": 1853,
      "했": 1854,
      "호": 1855,
      "환": 1856,
      "회": 1857,
      "": 1858,
      "": 1859,
      "": 1860,
      "": 1861,
      "": 1862,
      "": 1863,
      "": 1864,
      "": 1865,
      "": 1866,
      "️": 1867,
      "﻿": 1868,
      "�": 1869,
      "🆕": 1870,
      "🆖": 1871,
      "🌍": 1872,
      "🌎": 1873,
      "🌐": 1874,
      "🌟": 1875,
      "🌹": 1876,
      "🍃": 1877,
      "🍕": 1878,
      "🍩": 1879,
      "🍪": 1880,
      "🍰": 1881,
      "🍺": 1882,
      "🍻": 1883,
      "🎄": 1884,
      "🎉": 1885,
      "🎤": 1886,
      "🎭": 1887,
      "🏃": 1888,
      "🏆": 1889,
      "🏠": 1890,
      "🏻": 1891,
      "🏼": 1892,
      "🏽": 1893,
      "🏿": 1894,
      "🐈": 1895,
      "🐛": 1896,
      "🐞": 1897,
      "🐢": 1898,
      "🐥": 1899,
      "🐬": 1900,
      "👀": 1901,
      "👆": 1902,
      "👇": 1903,
      "👈": 1904,
      "👉": 1905,
      "👊": 1906,
      "👋": 1907,
      "👌": 1908,
      "👍": 1909,
      "👎": 1910,
      "👏": 1911,
      "👑": 1912,
      "👩": 1913,
      "👶": 1914,
      "👻": 1915,
      "👾": 1916,
      "💀": 1917,
      "💃": 1918,
      "💔": 1919,
      "💕": 1920,
      "💙": 1921,
      "💥": 1922,
      "💩": 1923,
      "💪": 1924,
      "💯": 1925,
      "💻": 1926,
      "📎": 1927,
      "📚": 1928,
      "📝": 1929,
      "📣": 1930,
      "📦": 1931,
      "📱": 1932,
      "📷": 1933,
      "🔍": 1934,
      "🔒": 1935,
      "🔖": 1936,
      "🔗": 1937,
      "🔡": 1938,
      "🔢": 1939,
      "🔥": 1940,
      "🔦": 1941,
      "🔨": 1942,
      "🔴": 1943,
      "🕙": 1944,
      "🕷": 1945,
      "🕹": 1946,
      "🕺": 1947,
      "🖐": 1948,
      "🖥": 1949,
      "🗑": 1950,
      "🗒": 1951,
      "😀": 1952,
      "😁": 1953,
      "😂": 1954,
      "😃": 1955,
      "😄": 1956,
      "😅": 1957,
      "😆": 1958,
      "😇": 1959,
      "😈": 1960,
      "😉": 1961,
      "😊": 1962,
      "😎": 1963,
      "😏": 1964,
      "😐": 1965,
      "😑": 1966,
      "😒": 1967,
      "😓": 1968,
      "😔": 1969,
      "😕": 1970,
      "😖": 1971,
      "😛": 1972,
      "😜": 1973,
      "😞": 1974,
      "😟": 1975,
      "😢": 1976,
      "😦": 1977,
      "😬": 1978,
      "😭": 1979,
      "😮": 1980,
      "😯": 1981,
      "😱": 1982,
      "😲": 1983,
      "😸": 1984,
      "😿": 1985,
      "🙁": 1986,
      "🙂": 1987,
      "🙇": 1988,
      "🙈": 1989,
      "🙋": 1990,
      "🙏": 1991,
      "🚀": 1992,
      "🚚": 1993,
      "🚨": 1994,
      "🚮": 1995,
      "🚲": 1996,
      "🚴": 1997,
      "🚵": 1998,
      "🛑": 1999,
      "🛰": 2000,
      "🟢": 2001,
      "🤔": 2002,
      "🤖": 2003,
      "🤗": 2004,
      "🤞": 2005,
      "🤢": 2006,
      "🤣": 2007,
      "🤦": 2008,
      "🤯": 2009,
      "🤷": 2010,
      "🥇": 2011,
      "🥑": 2012,
      "🥰": 2013,
      "🥲": 2014,
      "🦕": 2015,
      "🦖": 2016,
      "🧴": 2017,
      "🧵": 2018,
      "an": 2019,
      "sp": 2020,
      "span": 2021,
      "=\"": 2022,
      "la": 2023,
      "</": 2024,
      "er": 2025,
      "ss": 2026,
      "\">": 2027,
      "in": 2028,
      "on": 2029,
      "lass": 2030,
      "class": 2031,
      "pl": 2032,
      "te": 2033,
      "or": 2034,
      "re": 2035,
      "st": 2036,
      "at": 2037,
      "th": 2038,
      "le": 2039,
      "de": 2040,
      "li": 2041,
      "ot": 2042,
      "co": 2043,
      "en": 2044,
      "ar": 2045,
      "ut": 2046,
      "00": 2047,
      "di": 2048,
      "ion": 2049,
      "al": 2050,
      "ing": 2051,
      "lo": 2052,
      "ro": 2053,
      "se": 2054,
      "ch": 2055,
      "qu": 2056,
      "me": 2057,
      "ct": 2058,
      "ce": 2059,
      "uto": 2060,
      "auto": 2061,
      "ge": 2062,
      "><": 2063,
      "it": 2064,
      "quot": 2065,
      "ck": 2066,
      "dir": 2067,
      "un": 2068,
      "os": 2069,
      "py": 2070,
      "**": 2071,
      "con": 2072,
      "il": 2073,
      "pe": 2074,
      "ra": 2075,
      "not": 2076,
      "is": 2077,
      "code": 2078,
      "ran": 2079,
      "--": 2080,
      "ver": 2081,
      "ht": 2082,
      "..": 2083,
      "c1": 2084,
      "as": 2085,
      "ent": 2086,
      "to": 2087,
      "the": 2088,
      "br": 2089,
      "com": 2090,
      "ata": 2091,
      "rans": 2092,
      "late": 2093,
      "ve": 2094,
      "gt": 2095,
      "lt": 2096,
      "ex": 2097,
      "ter": 2098,
      "ad": 2099,
      "ur": 2100,
      "ap": 2101,
      "lib": 2102,
      "kos": 2103,
      "bo": 2104,
      "data": 2105,
      "ranslate": 2106,
      "notranslate": 2107,
      "id": 2108,
      "ile": 2109,
      "ser": 2110,
      "ho": 2111,
      "ten": 2112,
      "//": 2113,
      "es": 2114,
      "bu": 2115,
      "ard": 2116,
      "tp": 2117,
      "be": 2118,
      "for": 2119,
      "ate": 2120,
      "and": 2121,
      "\"><": 2122,
      "http": 2123,
      "==": 2124,
      "no": 2125,
      "str": 2126,
      "mp": 2127,
      "ty": 2128,
      "age": 2129,
      "ith": 2130,
      "che": 2131,
      "ic": 2132,
      "ff": 2133,
      "ack": 2134,
      "ig": 2135,
      "mo": 2136,
      "low": 2137,
      "ub": 2138,
      "://": 2139,
      "s1": 2140,
      "ip": 2141,
      "></": 2142,
      "ol": 2143,
      "20": 2144,
      "lin": 2145,
      "10": 2146,
      "sr": 2147,
      "ble": 2148,
      "ild": 2149,
      "ul": 2150,
      "pre": 2151,
      "ue": 2152,
      "0000": 2153,
      "****": 2154,
      "pro": 2155,
      "0x": 2156,
      "du": 2157,
      "ti": 2158,
      "op": 2159,
      "ne": 2160,
      "js": 2161,
      "https": 2162,
      "ort": 2163,
      "::": 2164,
      "ation": 2165,
      "ma": 2166,
      "ed": 2167,
      "so": 2168,
      ".</": 2169,
      "ork": 2170,
      "do": 2171,
      "tent": 2172,
      "iss": 2173,
      "type": 2174,
      "tr": 2175,
      "fa": 2176,
      "um": 2177,
      "im": 2178,
      "per": 2179,
      "cli": 2180,
      "av": 2181,
      "sion": 2182,
      "work": 2183,
      "11": 2184,
      "test": 2185,
      "div": 2186,
      "ite": 2187,
      "__": 2188,
      "ke": 2189,
      "src": 2190,
      "ect": 2191,
      "ame": 2192,
      "pack": 2193,
      "ca": 2194,
      "get": 2195,
      "ref": 2196,
      "64": 2197,
      "content": 2198,
      "ror": 2199,
      "all": 2200,
      "12": 2201,
      "thon": 2202,
      "flow": 2203,
      "of": 2204,
      "----": 2205,
      "ong": 2206,
      "De": 2207,
      "ject": 2208,
      "ask": 2209,
      "et": 2210,
      "vi": 2211,
      "am": 2212,
      "app": 2213,
      "able": 2214,
      "dule": 2215,
      "art": 2216,
      "build": 2217,
      "14": 2218,
      "gith": 2219,
      "ore": 2220,
      "if": 2221,
      "In": 2222,
      "rame": 2223,
      "ment": 2224,
      "13": 2225,
      "est": 2226,
      "15": 2227,
      "16": 2228,
      "strong": 2229,
      "package": 2230,
      "()": 2231,
      "org": 2232,
      "Re": 2233,
      "card": 2234,
      "up": 2235,
      "xt": 2236,
      "hover": 2237,
      "lut": 2238,
      "ted": 2239,
      "lutter": 2240,
      "hovercard": 2241,
      "he": 2242,
      "sn": 2243,
      "....": 2244,
      "ction": 2245,
      "ms": 2246,
      "python": 2247,
      "task": 2248,
      "board": 2249,
      "ba": 2250,
      "File": 2251,
      "ippe": 2252,
      "href": 2253,
      "clip": 2254,
      "ippet": 2255,
      "snippet": 2256,
      "module": 2257,
      "pr": 2258,
      "clipboard": 2259,
      "Con": 2260,
      "sc": 2261,
      "sers": 2262,
      "ava": 2263,
      "check": 2264,
      "port": 2265,
      "np": 2266,
      "ult": 2267,
      "000": 2268,
      "text": 2269,
      "github": 2270,
      "one": 2271,
      "ta": 2272,
      "17": 2273,
      ">,": 2274,
      "rom": 2275,
      "this": 2276,
      "tion": 2277,
      "ramework": 2278,
      "sh": 2279,
      "ds": 2280,
      "22": 2281,
      "file": 2282,
      "ly": 2283,
      "line": 2284,
      "flutter": 2285,
      "18": 2286,
      "********": 2287,
      "ys": 2288,
      "ob": 2289,
      ";</": 2290,
      "name": 2291,
      "with": 2292,
      "ec": 2293,
      "ple": 2294,
      "go": 2295,
      "loc": 2296,
      "error": 2297,
      "copy": 2298,
      "tor": 2299,
      "19": 2300,
      "pos": 2301,
      "run": 2302,
      "us": 2303,
      "====": 2304,
      "Co": 2305,
      "use": 2306,
      ".<": 2307,
      "put": 2308,
      "Users": 2309,
      "der": 2310,
      "86": 2311,
      "from": 2312,
      "da": 2313,
      "form": 2314,
      "java": 2315,
      "ure": 2316,
      "urce": 2317,
      ")</": 2318,
      "po": 2319,
      "version": 2320,
      "plic": 2321,
      "we": 2322,
      "list": 2323,
      "ER": 2324,
      "over": 2325,
      "IN": 2326,
      "npm": 2327,
      "ition": 2328,
      ":</": 2329,
      "are": 2330,
      "Bu": 2331,
      "Pro": 2332,
      ";,": 2333,
      "issue": 2334,
      "23": 2335,
      "si": 2336,
      "out": 2337,
      "read": 2338,
      "gi": 2339,
      "\"</": 2340,
      "h3": 2341,
      ";:": 2342,
      "dart": 2343,
      "bug": 2344,
      "framework": 2345,
      "link": 2346,
      "ir": 2347,
      "fo": 2348,
      "int": 2349,
      "wh": 2350,
      "):": 2351,
      "fol": 2352,
      "25": 2353,
      "24": 2354,
      "ues": 2355,
      "node": 2356,
      ">:": 2357,
      "comp": 2358,
      "box": 2359,
      "Ma": 2360,
      "Ap": 2361,
      "36": 2362,
      "rela": 2363,
      "position": 2364,
      "fig": 2365,
      "Ex": 2366,
      "ust": 2367,
      "',": 2368,
      "tive": 2369,
      "local": 2370,
      "overflow": 2371,
      "url": 2372,
      "load": 2373,
      "30": 2374,
      "\",": 2375,
      "set": 2376,
      "el": 2377,
      "bin": 2378,
      "Run": 2379,
      "mi": 2380,
      "relative": 2381,
      "par": 2382,
      "sor": 2383,
      "open": 2384,
      "ase": 2385,
      "cl": 2386,
      "gin": 2387,
      "time": 2388,
      "item": 2389,
      "lf": 2390,
      "imp": 2391,
      "packages": 2392,
      "act": 2393,
      "26": 2394,
      "follow": 2395,
      "27": 2396,
      "self": 2397,
      "d_": 2398,
      "modules": 2399,
      "ary": 2400,
      "yn": 2401,
      "ner": 2402,
      "ler": 2403,
      "num": 2404,
      "28": 2405,
      "amp": 2406,
      "tem": 2407,
      "Build": 2408,
      "user": 2409,
      "29": 2410,
      "fin": 2411,
      "val": 2412,
      "\":": 2413,
      "cc": 2414,
      "ive": 2415,
      "und": 2416,
      "vice": 2417,
      "ES": 2418,
      "ere": 2419,
      ";&": 2420,
      "usr": 2421,
      "--------": 2422,
      "home": 2423,
      "AT": 2424,
      "~~": 2425,
      "\">&": 2426,
      ";/": 2427,
      "object": 2428,
      "inter": 2429,
      "that": 2430,
      "ory": 2431,
      "cess": 2432,
      "core": 2433,
      "import": 2434,
      "issues": 2435,
      "],": 2436,
      "gra": 2437,
      "=&": 2438,
      "lig": 2439,
      "uld": 2440,
      "fun": 2441,
      "(<": 2442,
      "Th": 2443,
      "08": 2444,
      "comm": 2445,
      "requ": 2446,
      "ystem": 2447,
      "regi": 2448,
      "ers": 2449,
      ">.<": 2450,
      "source": 2451,
      "checkbox": 2452,
      "=\"\"": 2453,
      "DE": 2454,
      "ave": 2455,
      "35": 2456,
      "igh": 2457,
      "34": 2458,
      "dow": 2459,
      "=</": 2460,
      "col": 2461,
      "0x7": 2462,
      "ath": 2463,
      "St": 2464,
      "fault": 2465,
      "ret": 2466,
      "site": 2467,
      "e2": 2468,
      "stry": 2469,
      "back": 2470,
      "99": 2471,
      "37": 2472,
      "':": 2473,
      "light": 2474,
      "td": 2475,
      "ON": 2476,
      "ator": 2477,
      "rel": 2478,
      "my": 2479,
      "high": 2480,
      ");": 2481,
      "\">=</": 2482,
      "ok": 2483,
      "ang": 2484,
      "bel": 2485,
      "em": 2486,
      "%]": 2487,
      "ze": 2488,
      "ull": 2489,
      "urn": 2490,
      "rip": 2491,
      "Li": 2492,
      "export": 2493,
      "38": 2494,
      "An": 2495,
      "highlight": 2496,
      "ning": 2497,
      "gs": 2498,
      "........": 2499,
      "by": 2500,
      "ener": 2501,
      "55": 2502,
      "nofollow": 2503,
      "ali": 2504,
      "registry": 2505,
      "Er": 2506,
      "fi": 2507,
      "res": 2508,
      "roid": 2509,
      "32": 2510,
      "ass": 2511,
      "fet": 2512,
      "tra": 2513,
      "nal": 2514,
      "0x0000": 2515,
      "ren": 2516,
      "Error": 2517,
      "io": 2518,
      "39": 2519,
      "plication": 2520,
      "E_": 2521,
      "lect": 2522,
      "dis": 2523,
      "var": 2524,
      "return": 2525,
      "input": 2526,
      "mat": 2527,
      "AR": 2528,
      "tar": 2529,
      "ll": 2530,
      "tensor": 2531,
      "ET": 2532,
      "but": 2533,
      "tes": 2534,
      "min": 2535,
      "05": 2536,
      "dex": 2537,
      "config": 2538,
      "npmjs": 2539,
      "function": 2540,
      "inst": 2541,
      "\">(": 2542,
      "velo": 2543,
      "ag": 2544,
      "om": 2545,
      "iv": 2546,
      "den": 2547,
      "Files": 2548,
      "'</": 2549,
      "ron": 2550,
      "wid": 2551,
      "07": 2552,
      "iled": 2553,
      "pds": 2554,
      "47": 2555,
      "ou": 2556,
      "end": 2557,
      "lar": 2558,
      "ts": 2559,
      "fff": 2560,
      "pla": 2561,
      "09": 2562,
      "torch": 2563,
      "48": 2564,
      "\">(</": 2565,
      "\">)</": 2566,
      "Lo": 2567,
      "erne": 2568,
      "Make": 2569,
      "cre": 2570,
      "python3": 2571,
      "══": 2572,
      "h2": 2573,
      "main": 2574,
      "date": 2575,
      "have": 2576,
      "row": 2577,
      "),": 2578,
      "indow": 2579,
      "cep": 2580,
      "fe": 2581,
      "Runner": 2582,
      "****************": 2583,
      "45": 2584,
      "OR": 2585,
      "itle": 2586,
      "Ch": 2587,
      "blo": 2588,
      ">(<": 2589,
      "-&": 2590,
      "sho": 2591,
      "can": 2592,
      "XX": 2593,
      "node_": 2594,
      "ype": 2595,
      "smi": 2596,
      "...": 2597,
      "01": 2598,
      "CMake": 2599,
      "\">.</": 2600,
      "ring": 2601,
      "target": 2602,
      "base": 2603,
      "dy": 2604,
      "ache": 2605,
      "},": 2606,
      "tensorflow": 2607,
      "\">\"": 2608,
      "node_modules": 2609,
      "ext": 2610,
      "spring": 2611,
      "x86": 2612,
      "========": 2613,
      "ight": 2614,
      "image": 2615,
      "tain": 2616,
      "brary": 2617,
      "cv": 2618,
      "The": 2619,
      "21": 2620,
      "oto": 2621,
      "04": 2622,
      "06": 2623,
      "cted": 2624,
      "pen": 2625,
      "ph": 2626,
      "CMakeFiles": 2627,
      "ng": 2628,
      "77": 2629,
      "index": 2630,
      "Ver": 2631,
      "clu": 2632,
      "new": 2633,
      "cp": 2634,
      "ST": 2635,
      "lease": 2636,
      "su": 2637,
      "Test": 2638,
      "trans": 2639,
      ")<": 2640,
      "call": 2641,
      "_64": 2642,
      "atch": 2643,
      "Version": 2644,
      "man": 2645,
      "GET": 2646,
      "od": 2647,
      "46": 2648,
      "util": 2649,
      "Data": 2650,
      "default": 2651,
      "}</": 2652,
      "cu": 2653,
      "Comp": 2654,
      ":\\": 2655,
      "ew": 2656,
      "RE": 2657,
      "ps": 2658,
      "clude": 2659,
      "Building": 2660,
      "ument": 2661,
      "numpy": 2662,
      "request": 2663,
      "33": 2664,
      "=\"/": 2665,
      "200": 2666,
      "Application": 2667,
      "lement": 2668,
      "x86_64": 2669,
      "ri": 2670,
      "abled": 2671,
      "ated": 2672,
      "web": 2673,
      "alse": 2674,
      ">)": 2675,
      "test_": 2676,
      "56": 2677,
      "ux": 2678,
      "ugin": 2679,
      "tri": 2680,
      "onent": 2681,
      "vent": 2682,
      "ffe2": 2683,
      "Fa": 2684,
      ",</": 2685,
      "stra": 2686,
      "veloper": 2687,
      "CXX": 2688,
      "ml": 2689,
      "49": 2690,
      "ched": 2691,
      "wn": 2692,
      "Type": 2693,
      "\">-": 2694,
      "Un": 2695,
      "EN": 2696,
      "No": 2697,
      "ray": 2698,
      "log": 2699,
      "og": 2700,
      "Py": 2701,
      "conda": 2702,
      "87": 2703,
      "##": 2704,
      "arch": 2705,
      "caffe2": 2706,
      "fetch": 2707,
      "mode": 2708,
      "sible": 2709,
      "57": 2710,
      "ill": 2711,
      "ire": 2712,
      "____": 2713,
      "vo": 2714,
      "path": 2715,
      "include": 2716,
      "has": 2717,
      "IL": 2718,
      "value": 2719,
      "apache": 2720,
      "\">'": 2721,
      "ception": 2722,
      "Po": 2723,
      "FO": 2724,
      "ding": 2725,
      "\">-</": 2726,
      "stat": 2727,
      "project": 2728,
      "unt": 2729,
      "('": 2730,
      "Developer": 2731,
      "exec": 2732,
      "Ser": 2733,
      "ating": 2734,
      "\">,</": 2735,
      "ber": 2736,
      "true": 2737,
      "gener": 2738,
      "\">{": 2739,
      "ansible": 2740,
      "ange": 2741,
      "init": 2742,
      "wa": 2743,
      "\">;</": 2744,
      "System": 2745,
      "exam": 2746,
      "produ": 2747,
      "96": 2748,
      "Debug": 2749,
      "dev": 2750,
      "you": 2751,
      "ster": 2752,
      "ivate": 2753,
      "ab": 2754,
      "sci": 2755,
      "ync": 2756,
      "args": 2757,
      "�[": 2758,
      "disabled": 2759,
      "None": 2760,
      "uberne": 2761,
      "ubernetes": 2762,
      "Be": 2763,
      "Do": 2764,
      "babel": 2765,
      "\">\"</": 2766,
      "OS": 2767,
      "/.": 2768,
      "plot": 2769,
      "click": 2770,
      "31": 2771,
      "D_": 2772,
      "contain": 2773,
      "spa": 2774,
      "host": 2775,
      "Library": 2776,
      "Mo": 2777,
      "To": 2778,
      "ios": 2779,
      "And": 2780,
      "doc": 2781,
      "env": 2782,
      "ity": 2783,
      "miss": 2784,
      "ac": 2785,
      "Res": 2786,
      "40": 2787,
      "DI": 2788,
      "88": 2789,
      "\">}</": 2790,
      "ies": 2791,
      "key": 2792,
      "wo": 2793,
      "const": 2794,
      "plugin": 2795,
      "\">{</": 2796,
      "proto": 2797,
      "ogle": 2798,
      "sup": 2799,
      "scrip": 2800,
      "s_": 2801,
      "100": 2802,
      "97": 2803,
      "\">#": 2804,
      "66": 2805,
      "../": 2806,
      "tool": 2807,
      "kubernetes": 2808,
      "AS": 2809,
      "pected": 2810,
      "sq": 2811,
      "h5": 2812,
      "cur": 2813,
      "Window": 2814,
      "opencv": 2815,
      "Xcode": 2816,
      "00000000": 2817,
      "wr": 2818,
      "celer": 2819,
      "BU": 2820,
      "start": 2821,
      "En": 2822,
      "T_": 2823,
      "thod": 2824,
      "ource": 2825,
      "02": 2826,
      "67": 2827,
      "sk": 2828,
      "RO": 2829,
      "INFO": 2830,
      "\"/": 2831,
      "ssage": 2832,
      "ance": 2833,
      "58": 2834,
      "03": 2835,
      "Me": 2836,
      "ubbo": 2837,
      "hav": 2838,
      "using": 2839,
      "AL": 2840,
      "ther": 2841,
      "string": 2842,
      "ssion": 2843,
      "let": 2844,
      "ist": 2845,
      "~~~~": 2846,
      "Ob": 2847,
      "map": 2848,
      "For": 2849,
      "space": 2850,
      "Failed": 2851,
      "net": 2852,
      "ax": 2853,
      "arn": 2854,
      "used": 2855,
      "uli": 2856,
      "0x7fff": 2857,
      "hel": 2858,
      "any": 2859,
      "pa": 2860,
      "Element": 2861,
      "91": 2862,
      "tmp": 2863,
      "try": 2864,
      "celery": 2865,
      "android": 2866,
      "win": 2867,
      "gets": 2868,
      "ft": 2869,
      "cto": 2870,
      "ery": 2871,
      "ign": 2872,
      "last": 2873,
      "Wh": 2874,
      "max": 2875,
      "internal": 2876,
      "clo": 2877,
      "lay": 2878,
      "db": 2879,
      "scipy": 2880,
      "Content": 2881,
      "))": 2882,
      "ulia": 2883,
      "private": 2884,
      "thread": 2885,
      "rect": 2886,
      "ich": 2887,
      "defin": 2888,
      "atom": 2889,
      "ence": 2890,
      "59": 2891,
      "/</": 2892,
      "png": 2893,
      "pull": 2894,
      "App": 2895,
      "44": 2896,
      "50": 2897,
      "----------------": 2898,
      "Im": 2899,
      "google": 2900,
      "rust": 2901,
      "arning": 2902,
      "LO": 2903,
      "should": 2904,
      "ree": 2905,
      "df": 2906,
      "ally": 2907,
      "af": 2908,
      "_p": 2909,
      "blob": 2910,
      "Framework": 2911,
      "cache": 2912,
      "eb": 2913,
      "ded": 2914,
      "api": 2915,
      "fer": 2916,
      "ym": 2917,
      "Android": 2918,
      "AP": 2919,
      "iler": 2920,
      "ior": 2921,
      "ial": 2922,
      "rent": 2923,
      "some": 2924,
      "tro": 2925,
      "linux": 2926,
      "add": 2927,
      "pand": 2928,
      "nn": 2929,
      "ION": 2930,
      "when": 2931,
      "2f": 2932,
      "kno": 2933,
      "ute": 2934,
      "title": 2935,
      "debug": 2936,
      "Se": 2937,
      "98": 2938,
      "array": 2939,
      "cor": 2940,
      "mk": 2941,
      "model": 2942,
      "_P": 2943,
      "size": 2944,
      "octo": 2945,
      "process": 2946,
      "54": 2947,
      "spec": 2948,
      "Object": 2949,
      "Python": 2950,
      "system": 2951,
      "next": 2952,
      "mission": 2953,
      "AN": 2954,
      "dubbo": 2955,
      "dylib": 2956,
      "order": 2957,
      "sty": 2958,
      "c8": 2959,
      "widgets": 2960,
      "opt": 2961,
      "NO": 2962,
      "false": 2963,
      "gn": 2964,
      "Applications": 2965,
      "AC": 2966,
      "cy": 2967,
      "0x00007": 2968,
      "................": 2969,
      "DIR": 2970,
      "ting": 2971,
      "Ar": 2972,
      "support": 2973,
      "oper": 2974,
      "53": 2975,
      "range": 2976,
      "checked": 2977,
      "example": 2978,
      "irflow": 2979,
      "cpp": 2980,
      "ant": 2981,
      "gro": 2982,
      "style": 2983,
      "does": 2984,
      "trol": 2985,
      "runtime": 2986,
      "Tr": 2987,
      "Contents": 2988,
      "create": 2989,
      "Fo": 2990,
      "update": 2991,
      "78": 2992,
      "Lin": 2993,
      "ature": 2994,
      "ony": 2995,
      "havior": 2996,
      "dle": 2997,
      "This": 2998,
      "option": 2999,
      "ubu": 3000,
      "sercontent": 3001,
      "githubu": 3002,
      "githubusercontent": 3003,
      "ular": 3004,
      "hand": 3005,
      "output": 3006,
      "CO": 3007,
      ":/": 3008,
      "cal": 3009,
      "════": 3010,
      "h1": 3011,
      "_s": 3012,
      ").": 3013,
      "permission": 3014,
      "cuda": 3015,
      "]:": 3016,
      "pandas": 3017,
      "ww": 3018,
      "here": 3019,
      "change": 3020,
      "68": 3021,
      "make": 3022,
      "buf": 3023,
      "device": 3024,
      "rap": 3025,
      "mm": 3026,
      "lectron": 3027,
      "info": 3028,
      "will": 3029,
      "men": 3030,
      "_test": 3031,
      "exten": 3032,
      "result": 3033,
      "server": 3034,
      "stru": 3035,
      "_S": 3036,
      "UR": 3037,
      "_type": 3038,
      "install": 3039,
      "plotlib": 3040,
      "img": 3041,
      "context": 3042,
      "color": 3043,
      "search": 3044,
      "async": 3045,
      "gz": 3046,
      "ins": 3047,
      "airflow": 3048,
      "ifest": 3049,
      "LE": 3050,
      "ide": 3051,
      "edi": 3052,
      "julia": 3053,
      "ternal": 3054,
      "tests": 3055,
      "dist": 3056,
      "sil": 3057,
      "print": 3058,
      "52": 3059,
      "width": 3060,
      "was": 3061,
      "penden": 3062,
      "Thread": 3063,
      "table": 3064,
      "learn": 3065,
      "sub": 3066,
      "Name": 3067,
      "silly": 3068,
      "93": 3069,
      "_b": 3070,
      "11e": 3071,
      "transform": 3072,
      "ual": 3073,
      "see": 3074,
      "Context": 3075,
      "-/": 3076,
      "rowser": 3077,
      "iph": 3078,
      "Bo": 3079,
      "plicate": 3080,
      "ible": 3081,
      "like": 3082,
      "lic": 3083,
      "party": 3084,
      "43": 3085,
      "?</": 3086,
      "ula": 3087,
      "produce": 3088,
      "Windows": 3089,
      "led": 3090,
      "ctor": 3091,
      "Gener": 3092,
      "Flutter": 3093,
      "images": 3094,
      "lche": 3095,
      "Bean": 3096,
      "Code": 3097,
      "Component": 3098,
      "0x7f": 3099,
      "master": 3100,
      "would": 3101,
      "found": 3102,
      "protobuf": 3103,
      "Service": 3104,
      "def": 3105,
      "42": 3106,
      "AM": 3107,
      "known": 3108,
      "matplotlib": 3109,
      "tools": 3110,
      "YES": 3111,
      "ING": 3112,
      "null": 3113,
      "\">@": 3114,
      "lchemy": 3115,
      "common": 3116,
      "stack": 3117,
      "True": 3118,
      "\"></": 3119,
      "Title": 3120,
      "message": 3121,
      "std": 3122,
      "Frameworks": 3123,
      "/-/": 3124,
      "ream": 3125,
      "80": 3126,
      "our": 3127,
      "tgz": 3128,
      "which": 3129,
      "l_": 3130,
      "lang": 3131,
      "state": 3132,
      "ise": 3133,
      "zed": 3134,
      "[<": 3135,
      "face": 3136,
      "Release": 3137,
      "./": 3138,
      "tf": 3139,
      "tform": 3140,
      "temp": 3141,
      "ager": 3142,
      "its": 3143,
      "users": 3144,
      "command": 3145,
      "arg": 3146,
      "cent": 3147,
      "cker": 3148,
      "utils": 3149,
      "label": 3150,
      "_id": 3151,
      "sqla": 3152,
      "orm": 3153,
      "=/": 3154,
      "manifest": 3155,
      "S_": 3156,
      "********************************": 3157,
      "dd": 3158,
      "PU": 3159,
      "=\"\">": 3160,
      "sions": 3161,
      "au": 3162,
      "')": 3163,
      "ep": 3164,
      "LI": 3165,
      "ank": 3166,
      "view": 3167,
      "html": 3168,
      "76": 3169,
      "51": 3170,
      "ulator": 3171,
      "ERR": 3172,
      "TH": 3173,
      "Exception": 3174,
      "ffer": 3175,
      "ative": 3176,
      "pi": 3177,
      "sqlalchemy": 3178,
      "vis": 3179,
      "direct": 3180,
      "soft": 3181,
      "\">/</": 3182,
      "ilter": 3183,
      "script": 3184,
      "stract": 3185,
      "gine": 3186,
      "vali": 3187,
      "root": 3188,
      "tw": 3189,
      "render": 3190,
      "Default": 3191,
      "ets": 3192,
      "Ab": 3193,
      "thing": 3194,
      "other": 3195,
      "90": 3196,
      "7fa": 3197,
      "editor": 3198,
      "_f": 3199,
      "ils": 3200,
      "================": 3201,
      "angular": 3202,
      "files": 3203,
      "ynam": 3204,
      "pytorch": 3205,
      "current": 3206,
      "anne": 3207,
      "41": 3208,
      "json": 3209,
      "sim": 3210,
      "only": 3211,
      "ader": 3212,
      "perty": 3213,
      "75": 3214,
      "compiler": 3215,
      "(&": 3216,
      "ynamic": 3217,
      "feature": 3218,
      "react": 3219,
      "ger": 3220,
      "95": 3221,
      "operator": 3222,
      "US": 3223,
      "event": 3224,
      "require": 3225,
      "60": 3226,
      "arding": 3227,
      "fetched": 3228,
      "uments": 3229,
      "Config": 3230,
      "paco": 3231,
      "copying": 3232,
      "pacote": 3233,
      "defined": 3234,
      "──": 3235,
      "pc": 3236,
      "page": 3237,
      "Class": 3238,
      "Ho": 3239,
      "aconda": 3240,
      "loat": 3241,
      "State": 3242,
      "crip": 3243,
      "ku": 3244,
      "Found": 3245,
      "ls": 3246,
      "component": 3247,
      "jar": 3248,
      "commit": 3249,
      "service": 3250,
      "behavior": 3251,
      "remo": 3252,
      "0m": 3253,
      "mar": 3254,
      "iali": 3255,
      "mit": 3256,
      "Abstract": 3257,
      "WAR": 3258,
      "quest": 3259,
      "conne": 3260,
      "________": 3261,
      "expected": 3262,
      "ATH": 3263,
      "block": 3264,
      "Des": 3265,
      "sha": 3266,
      "h4": 3267,
      "there": 3268,
      "ensor": 3269,
      "ry": 3270,
      "Str": 3271,
      "_F": 3272,
      "projects": 3273,
      "number": 3274,
      "Work": 3275,
      "window": 3276,
      "Core": 3277,
      "dk": 3278,
      "utor": 3279,
      "ameter": 3280,
      "trace": 3281,
      "failed": 3282,
      "gram": 3283,
      "ug": 3284,
      "]</": 3285,
      "Val": 3286,
      "viron": 3287,
      "umn": 3288,
      "Fact": 3289,
      "Inter": 3290,
      "exception": 3291,
      "uration": 3292,
      "dec": 3293,
      "xy": 3294,
      "fact": 3295,
      "len": 3296,
      "python2": 3297,
      "Versions": 3298,
      "client": 3299,
      "wait": 3300,
      "resource": 3301,
      "If": 3302,
      "olve": 3303,
      "compile": 3304,
      "Sh": 3305,
      "He": 3306,
      "pub": 3307,
      "cause": 3308,
      "iable": 3309,
      "thir": 3310,
      "AV": 3311,
      "imulator": 3312,
      "top": 3313,
      "7f": 3314,
      "case": 3315,
      "With": 3316,
      "wor": 3317,
      "ccess": 3318,
      "get_": 3319,
      "Exec": 3320,
      "Java": 3321,
      "\">:</": 3322,
      "Tensor": 3323,
      "webpack": 3324,
      "ans": 3325,
      "EC": 3326,
      "icro": 3327,
      "])": 3328,
      "####": 3329,
      "vironment": 3330,
      "irst": 3331,
      "springframework": 3332,
      "Doc": 3333,
      "find": 3334,
      "Factory": 3335,
      "cb": 3336,
      "ea": 3337,
      "duplicate": 3338,
      "foo": 3339,
      "zer": 3340,
      "kube": 3341,
      "94": 3342,
      "ji": 3343,
      "play": 3344,
      "70": 3345,
      "place": 3346,
      "ones": 3347,
      "sym": 3348,
      "Module": 3349,
      "Comm": 3350,
      "more": 3351,
      "external": 3352,
      "91m": 3353,
      "Man": 3354,
      "CH": 3355,
      "WARN": 3356,
      "spon": 3357,
      "method": 3358,
      "@^": 3359,
      "group": 3360,
      "opencv_": 3361,
      "ived": 3362,
      "gnu": 3363,
      "pu": 3364,
      "AB": 3365,
      "Vi": 3366,
      "ton": 3367,
      "'/": 3368,
      "third_": 3369,
      "third_party": 3370,
      "eld": 3371,
      "Tra": 3372,
      "query": 3373,
      "MP": 3374,
      "cf": 3375,
      "Base": 3376,
      "git": 3377,
      ":<": 3378,
      "dependen": 3379,
      "ources": 3380,
      "String": 3381,
      "kw": 3382,
      "UT": 3383,
      "obj": 3384,
      "red": 3385,
      "bd": 3386,
      "0x0000000": 3387,
      "md": 3388,
      "Event": 3389,
      "annel": 3390,
      "Profile": 3391,
      "View": 3392,
      "iddle": 3393,
      "Hand": 3394,
      "wrap": 3395,
      "AD": 3396,
      "teps": 3397,
      "vid": 3398,
      "count": 3399,
      "rt": 3400,
      "show": 3401,
      "cos": 3402,
      "body": 3403,
      "ER_": 3404,
      "frame": 3405,
      "very": 3406,
      "='": 3407,
      "border": 3408,
      "C_": 3409,
      "_op": 3410,
      "aders": 3411,
      "specif": 3412,
      "Node": 3413,
      "report": 3414,
      "boot": 3415,
      "2016": 3416,
      "proble": 3417,
      "electron": 3418,
      "ilt": 3419,
      "anaconda": 3420,
      "ine": 3421,
      "ations": 3422,
      "ud": 3423,
      "dimen": 3424,
      "\\\\": 3425,
      "apple": 3426,
      "Open": 3427,
      "medi": 3428,
      "cd": 3429,
      "e2e": 3430,
      "ics": 3431,
      "abo": 3432,
      "sed": 3433,
      "Method": 3434,
      "void": 3435,
      "mult": 3436,
      "][": 3437,
      "sklearn": 3438,
      "nt": 3439,
      "\">[": 3440,
      "mention": 3441,
      "0x10": 3442,
      "BUG": 3443,
      "valid": 3444,
      "Pr": 3445,
      "Act": 3446,
      "deta": 3447,
      "SS": 3448,
      "_1": 3449,
      "Task": 3450,
      "++": 3451,
      "Expected": 3452,
      "False": 3453,
      "dnn": 3454,
      "VER": 3455,
      "down": 3456,
      "CL": 3457,
      "It": 3458,
      "warning": 3459,
      "share": 3460,
      "status": 3461,
      "ous": 3462,
      "ef": 3463,
      "bar": 3464,
      "ED": 3465,
      "CON": 3466,
      "_g": 3467,
      "fix": 3468,
      "point": 3469,
      "troller": 3470,
      "91mnpm": 3471,
      "2a": 3472,
      "EX": 3473,
      "sum": 3474,
      "k8": 3475,
      "icrosoft": 3476,
      ">(": 3477,
      "fony": 3478,
      "worker": 3479,
      "px": 3480,
      "Impl": 3481,
      "ain": 3482,
      "sing": 3483,
      "v1": 3484,
      "e6": 3485,
      "74": 3486,
      "Process": 3487,
      "mer": 3488,
      "DK": 3489,
      "89": 3490,
      "reproduce": 3491,
      "same": 3492,
      "SION": 3493,
      "uni": 3494,
      "fla": 3495,
      "parameter": 3496,
      "La": 3497,
      "ru": 3498,
      "inte": 3499,
      "AG": 3500,
      "TO": 3501,
      "voke": 3502,
      "float": 3503,
      "refer": 3504,
      "unknown": 3505,
      "FA": 3506,
      "disp": 3507,
      "lastic": 3508,
      "65": 3509,
      "DEBUG": 3510,
      "format": 3511,
      "localhost": 3512,
      "execute": 3513,
      "deno": 3514,
      "session": 3515,
      "dimensions": 3516,
      "mem": 3517,
      "ution": 3518,
      "wer": 3519,
      "browser": 3520,
      "79": 3521,
      "ui": 3522,
      ">()": 3523,
      "alt": 3524,
      ".&": 3525,
      "2d": 3526,
      "Project": 3527,
      "0A": 3528,
      "cat": 3529,
      "85": 3530,
      "macos": 3531,
      "fore": 3532,
      "rer": 3533,
      "rs": 3534,
      "PL": 3535,
      "ime": 3536,
      "glo": 3537,
      "post": 3538,
      "platform": 3539,
      "ful": 3540,
      "exist": 3541,
      "sure": 3542,
      "([": 3543,
      ";)": 3544,
      "loader": 3545,
      "\">//": 3546,
      "Child": 3547,
      "84": 3548,
      "Local": 3549,
      "assets": 3550,
      "engine": 3551,
      "contains": 3552,
      "css": 3553,
      "sole": 3554,
      "ender": 3555,
      "dom": 3556,
      "69": 3557,
      "velop": 3558,
      "your": 3559,
      "vm": 3560,
      "Di": 3561,
      "UL": 3562,
      "}}": 3563,
      "lank": 3564,
      "action": 3565,
      "gre": 3566,
      "types": 3567,
      "sharding": 3568,
      "ready": 3569,
      "release": 3570,
      "bf": 3571,
      "elastic": 3572,
      "annot": 3573,
      "83": 3574,
      "most": 3575,
      "problem": 3576,
      "M_": 3577,
      "dio": 3578,
      "Value": 3579,
      "sponse": 3580,
      "pare": 3581,
      "ey": 3582,
      "VE": 3583,
      "Handler": 3584,
      "que": 3585,
      "link_type": 3586,
      "Pla": 3587,
      "xx": 3588,
      "Ad": 3589,
      "Op": 3590,
      "AME": 3591,
      "CU": 3592,
      "_m": 3593,
      "imple": 3594,
      "lable": 3595,
      "char": 3596,
      "macosx": 3597,
      "IT": 3598,
      "List": 3599,
      ";:&": 3600,
      "undle": 3601,
      "vide": 3602,
      "Col": 3603,
      "instance": 3604,
      "ping": 3605,
      "ERROR": 3606,
      "cle": 3607,
      "Main": 3608,
      "ven": 3609,
      "ply": 3610,
      "way": 3611,
      "pk": 3612,
      "mark": 3613,
      "first": 3614,
      "stream": 3615,
      "isted": 3616,
      "k8s": 3617,
      "resolve": 3618,
      "73": 3619,
      "norm": 3620,
      "rome": 3621,
      "stri": 3622,
      "prec": 3623,
      "zel": 3624,
      "62": 3625,
      "following": 3626,
      "Oper": 3627,
      "strap": 3628,
      "docker": 3629,
      "ffff": 3630,
      "fn": 3631,
      "On": 3632,
      "React": 3633,
      "██": 3634,
      "{&": 3635,
      "pip": 3636,
      "aten": 3637,
      "Par": 3638,
      "libr": 3639,
      "c0": 3640,
      "%;": 3641,
      "['": 3642,
      "ken": 3643,
      "application": 3644,
      "aa": 3645,
      "Bin": 3646,
      "{\"": 3647,
      "tom": 3648,
      "docs": 3649,
      "gr": 3650,
      "Warning": 3651,
      "ee": 3652,
      "Render": 3653,
      "need": 3654,
      "ples": 3655,
      "My": 3656,
      "opener": 3657,
      "Time": 3658,
      "nore": 3659,
      "\":\"": 3660,
      "ates": 3661,
      "TS": 3662,
      "train": 3663,
      "ferrer": 3664,
      "ert": 3665,
      "noopener": 3666,
      "noreferrer": 3667,
      "pan": 3668,
      "/@": 3669,
      "Out": 3670,
      "63": 3671,
      "_blank": 3672,
      "running": 3673,
      "_DIR": 3674,
      "%;\"></": 3675,
      "invoke": 3676,
      "cies": 3677,
      "leg": 3678,
      "72": 3679,
      "console": 3680,
      "iphones": 3681,
      "where": 3682,
      "match": 3683,
      "Tool": 3684,
      "cript": 3685,
      "twisted": 3686,
      "sa": 3687,
      "column": 3688,
      "What": 3689,
      "pass": 3690,
      "b0": 3691,
      "formation": 3692,
      "Fun": 3693,
      "envs": 3694,
      "iphonesimulator": 3695,
      "jl": 3696,
      "61": 3697,
      "bi": 3698,
      "Set": 3699,
      "SQ": 3700,
      "vel": 3701,
      "develop": 3702,
      "handle": 3703,
      "then": 3704,
      "Call": 3705,
      "════════": 3706,
      "Manager": 3707,
      "www": 3708,
      "81": 3709,
      "ernel": 3710,
      "quo": 3711,
      "VERSION": 3712,
      "button": 3713,
      ";'": 3714,
      "instal": 3715,
      "parse": 3716,
      "\">'</": 3717,
      "bs": 3718,
      "Generating": 3719,
      "BUIL": 3720,
      "0x0": 3721,
      "();": 3722,
      "Per": 3723,
      "flutter_": 3724,
      "iter": 3725,
      "Trace": 3726,
      "book": 3727,
      "middle": 3728,
      "0x000000010": 3729,
      "struct": 3730,
      "multi": 3731,
      "Der": 3732,
      "_t": 3733,
      "generate": 3734,
      "bazel": 3735,
      "\\&": 3736,
      "ustom": 3737,
      "bb": 3738,
      "uture": 3739,
      "\">$": 3740,
      "SQL": 3741,
      "So": 3742,
      "iden": 3743,
      "Derived": 3744,
      "}\"><": 3745,
      "static": 3746,
      "select": 3747,
      "v0": 3748,
      "could": 3749,
      "reference": 3750,
      "RI": 3751,
      "may": 3752,
      "after": 3753,
      ">]": 3754,
      "UP": 3755,
      "emo": 3756,
      "ash": 3757,
      "00000000e": 3758,
      "dition": 3759,
      "c_": 3760,
      "cloud": 3761,
      "(/": 3762,
      "raw": 3763,
      "CE": 3764,
      "~~~~~~~~": 3765,
      "})": 3766,
      "elasticsearch": 3767,
      "library": 3768,
      "options": 3769,
      "Cre": 3770,
      "Array": 3771,
      "posit": 3772,
      "API": 3773,
      "setup": 3774,
      "kwargs": 3775,
      "At": 3776,
      "help": 3777,
      "child": 3778,
      "cpu": 3779,
      "ix": 3780,
      "Key": 3781,
      "container": 3782,
      "resources": 3783,
      "emoji": 3784,
      "into": 3785,
      "provid": 3786,
      "DO": 3787,
      "unch": 3788,
      "quote": 3789,
      "bootstrap": 3790,
      "82": 3791,
      "ssible": 3792,
      "FF": 3793,
      "variable": 3794,
      "allow": 3795,
      "element": 3796,
      "impl": 3797,
      "secon": 3798,
      "ick": 3799,
      "ize": 3800,
      "_request": 3801,
      "pd": 3802,
      "extension": 3803,
      "304": 3804,
      "Resources": 3805,
      "71": 3806,
      "recent": 3807,
      "udio": 3808,
      "AppData": 3809,
      "_PATH": 3810,
      "0xc8": 3811,
      "Request": 3812,
      "PRO": 3813,
      ">.": 3814,
      "When": 3815,
      "shape": 3816,
      "param": 3817,
      "ress": 3818,
      "ak": 3819,
      "lide": 3820,
      "Environment": 3821,
      "how": 3822,
      "just": 3823,
      "ied": 3824,
      "hol": 3825,
      "termin": 3826,
      "................................": 3827,
      "Pl": 3828,
      "HT": 3829,
      "c10": 3830,
      "jo": 3831,
      "rw": 3832,
      "ice": 3833,
      "interface": 3834,
      "directory": 3835,
      "*</": 3836,
      "']": 3837,
      "values": 3838,
      "Ph": 3839,
      "Mode": 3840,
      "template": 3841,
      "plo": 3842,
      "Che": 3843,
      "tead": 3844,
      "Id": 3845,
      "ging": 3846,
      "erial": 3847,
      "ID": 3848,
      "Cli": 3849,
      "cket": 3850,
      "role": 3851,
      "doesn": 3852,
      "Path": 3853,
      "timi": 3854,
      "throw": 3855,
      "emp": 3856,
      "9f": 3857,
      "Filter": 3858,
      "DA": 3859,
      "arm": 3860,
      "write": 3861,
      "zation": 3862,
      "property": 3863,
      "operators": 3864,
      "CC": 3865,
      "ical": 3866,
      "mac": 3867,
      "lu": 3868,
      "mb": 3869,
      "uster": 3870,
      "ify": 3871,
      "UN": 3872,
      "vs": 3873,
      "ication": 3874,
      "Web": 3875,
      "beans": 3876,
      "[]": 3877,
      "ENT": 3878,
      "eve": 3879,
      "wright": 3880,
      "RES": 3881,
      "Function": 3882,
      "Source": 3883,
      "ql": 3884,
      ";<": 3885,
      "d64": 3886,
      "lection": 3887,
      "2018": 3888,
      "3A": 3889,
      "Dynamic": 3890,
      "ker": 3891,
      "super": 3892,
      "fail": 3893,
      "Executor": 3894,
      "92": 3895,
      "native": 3896,
      "sche": 3897,
      "also": 3898,
      "127": 3899,
      "Frame": 3900,
      "well": 3901,
      "_de": 3902,
      "HE": 3903,
      "Pool": 3904,
      "SDK": 3905,
      "--------------------------------": 3906,
      "por": 3907,
      "ANG": 3908,
      "factory": 3909,
      "_re": 3910,
      "Auto": 3911,
      "---": 3912,
      "helper": 3913,
      "else": 3914,
      "mous": 3915,
      "sw": 3916,
      "tran": 3917,
      "/../": 3918,
      "conf": 3919,
      "because": 3920,
      "_name": 3921,
      ">\"": 3922,
      "onymous": 3923,
      "contri": 3924,
      "unk": 3925,
      "Check": 3926,
      "init__": 3927,
      "long": 3928,
      "undefined": 3929,
      "dependencies": 3930,
      "Conne": 3931,
      "appen": 3932,
      "bal": 3933,
      "1f": 3934,
      "Inst": 3935,
      "ink": 3936,
      "zone": 3937,
      "Qu": 3938,
      "non": 3939,
      "bit": 3940,
      "c3": 3941,
      "2015": 3942,
      "Please": 3943,
      "^^": 3944,
      "remove": 3945,
      "e7": 3946,
      "ast": 3947,
      "graph": 3948,
      "Command": 3949,
      "__init__": 3950,
      "untu": 3951,
      "already": 3952,
      "_config": 3953,
      "Steps": 3954,
      "instead": 3955,
      "IG": 3956,
      "Documents": 3957,
      ";,&": 3958,
      "Message": 3959,
      "cons": 3960,
      "kit": 3961,
      "public": 3962,
      "ties": 3963,
      "User": 3964,
      "alloc": 3965,
      "Ass": 3966,
      "dtype": 3967,
      "jax": 3968,
      "ample": 3969,
      "ware": 3970,
      "information": 3971,
      "amd64": 3972,
      "iphone": 3973,
      "before": 3974,
      "Mat": 3975,
      "initiali": 3976,
      "connection": 3977,
      "\",\"": 3978,
      "0x00007fff": 3979,
      ".,": 3980,
      "lity": 3981,
      "sphere": 3982,
      "lation": 3983,
      "conv": 3984,
      "await": 3985,
      "_0": 3986,
      "tasks": 3987,
      "extra": 3988,
      "ATen": 3989,
      "iphoneos": 3990,
      "nx": 3991,
      "ments": 3992,
      "anonymous": 3993,
      "Worker": 3994,
      "cope": 3995,
      "_in": 3996,
      "sig": 3997,
      "plugins": 3998,
      "Cur": 3999,
      "tho": 4000,
      "{{": 4001,
      "cho": 4002,
      "adata": 4003,
      "document": 4004,
      "token": 4005,
      "ASE": 4006,
      "NAME": 4007,
      "Binding": 4008,
      "details": 4009,
      "note": 4010,
      "Traceback": 4011,
      "side": 4012,
      "ned": 4013,
      "(\"": 4014,
      "happen": 4015,
      "_c": 4016,
      "Text": 4017,
      "pository": 4018,
      "c9": 4019,
      "Script": 4020,
      "Link": 4021,
      "2017": 4022,
      "Map": 4023,
      "trying": 4024,
      "field": 4025,
      "right": 4026,
      "development": 4027,
      "tribu": 4028,
      "Not": 4029,
      "'.": 4030,
      "Image": 4031,
      "random": 4032,
      "Pods": 4033,
      "Result": 4034,
      "Vis": 4035,
      "b8": 4036,
      "bg": 4037,
      "!!": 4038,
      "ference": 4039,
      "ld": 4040,
      "errors": 4041,
      "_d": 4042,
      "forms": 4043,
      "hi": 4044,
      "optimi": 4045,
      "a6": 4046,
      "DerivedData": 4047,
      "\">[</": 4048,
      "configuration": 4049,
      "ense": 4050,
      "PR": 4051,
      "setting": 4052,
      "URL": 4053,
      "AA": 4054,
      "what": 4055,
      "Projects": 4056,
      "128": 4057,
      "Go": 4058,
      "ssh": 4059,
      "Box": 4060,
      "differ": 4061,
      ">.</": 4062,
      "cmake": 4063,
      "look": 4064,
      "Sym": 4065,
      "(*": 4066,
      "\">*</": 4067,
      "_B": 4068,
      ">:<": 4069,
      "perform": 4070,
      "LOP": 4071,
      "auth": 4072,
      "\">]</": 4073,
      "c6": 4074,
      "mkl": 4075,
      "MO": 4076,
      "Headers": 4077,
      "pkg": 4078,
      "Inte": 4079,
      "VELOP": 4080,
      "examples": 4081,
      "rc": 4082,
      "Electron": 4083,
      "DEVELOP": 4084,
      "cce": 4085,
      "scre": 4086,
      "Info": 4087,
      "3d": 4088,
      "libsystem": 4089,
      "anaconda3": 4090,
      "now": 4091,
      "ARCH": 4092,
      "CT": 4093,
      "ado": 4094,
      "backend": 4095,
      "shot": 4096,
      "shardingsphere": 4097,
      "2021": 4098,
      "ii": 4099,
      "hell": 4100,
      "156": 4101,
      "such": 4102,
      "job": 4103,
      "Int": 4104,
      "than": 4105,
      "raise": 4106,
      "func": 4107,
      "namespace": 4108,
      "ATE": 4109,
      "save": 4110,
      "2019": 4111,
      "BeanFactory": 4112,
      "But": 4113,
      "mediates": 4114,
      "3E": 4115,
      "Fi": 4116,
      "works": 4117,
      "ume": 4118,
      "met": 4119,
      "rsp": 4120,
      "5f": 4121,
      "zy": 4122,
      "Pub": 4123,
      "tt": 4124,
      "done": 4125,
      "Loader": 4126,
      "Current": 4127,
      ">)</": 4128,
      "147": 4129,
      "d0": 4130,
      "symfony": 4131,
      "proxy": 4132,
      "CPU": 4133,
      "VI": 4134,
      "Option": 4135,
      "SY": 4136,
      "comple": 4137,
      "descrip": 4138,
      "e4": 4139,
      "ML": 4140,
      "possible": 4141,
      "igin": 4142,
      "FOR": 4143,
      "response": 4144,
      "ish": 4145,
      "Property": 4146,
      "DU": 4147,
      "Unit": 4148,
      "screen": 4149,
      "vars": 4150,
      "less": 4151,
      "1000": 4152,
      "word": 4153,
      "Up": 4154,
      "110": 4155,
      "Studio": 4156,
      "beta": 4157,
      "gc": 4158,
      "las": 4159,
      "gradle": 4160,
      "CV": 4161,
      "CUDA": 4162,
      "154": 4163,
      "ont": 4164,
      "mini": 4165,
      "Wno": 4166,
      "grad": 4167,
      "ized": 4168,
      "rd": 4169,
      "ploy": 4170,
      "dele": 4171,
      "pull_request": 4172,
      "Browser": 4173,
      "controller": 4174,
      "store": 4175,
      "iling": 4176,
      "d6": 4177,
      "ions": 4178,
      "olution": 4179,
      "isten": 4180,
      "pool": 4181,
      "ach": 4182,
      "As": 4183,
      "Channel": 4184,
      "e0": 4185,
      "vious": 4186,
      "correct": 4187,
      "~[": 4188,
      "From": 4189,
      "Phone": 4190,
      "Wrap": 4191,
      "{}": 4192,
      "dar": 4193,
      "00000": 4194,
      "ribe": 4195,
      "Built": 4196,
      "tep": 4197,
      "Linux": 4198,
      "plicit": 4199,
      "c7": 4200,
      "na": 4201,
      "structor": 4202,
      "handler": 4203,
      "CODE": 4204,
      "leng": 4205,
      "Stream": 4206,
      "changed": 4207,
      "dll": 4208,
      "Al": 4209,
      "contrib": 4210,
      "ested": 4211,
      "tifi": 4212,
      "Ro": 4213,
      "filter": 4214,
      "noindex": 4215,
      "Hel": 4216,
      "pod": 4217,
      "installed": 4218,
      "length": 4219,
      "LIB": 4220,
      "level": 4221,
      ")\"><": 4222,
      "Pre": 4223,
      "_k": 4224,
      "aw": 4225,
      "off": 4226,
      "a0": 4227,
      "playwright": 4228,
      "3D": 4229,
      "***": 4230,
      "Index": 4231,
      "UI": 4232,
      "b4": 4233,
      "sys": 4234,
      "syn": 4235,
      "etc": 4236,
      "Trans": 4237,
      "bre": 4238,
      "pp": 4239,
      "Intermediates": 4240,
      "ACK": 4241,
      "want": 4242,
      "Regi": 4243,
      "({": 4244,
      "\\'": 4245,
      "iPhone": 4246,
      "proper": 4247,
      "sign": 4248,
      "Input": 4249,
      "river": 4250,
      "workspace": 4251,
      "about": 4252,
      "Wid": 4253,
      "Model": 4254,
      "rb": 4255,
      "merge": 4256,
      "e5": 4257,
      "batch": 4258,
      "rustc": 4259,
      "deprec": 4260,
      "microsoft": 4261,
      "By": 4262,
      "repository": 4263,
      "created": 4264,
      "comment": 4265,
      "onnx": 4266,
      "without": 4267,
      "ideep": 4268,
      "cluster": 4269,
      "virt": 4270,
      "assert": 4271,
      "seems": 4272,
      "free": 4273,
      "adding": 4274,
      "blockquote": 4275,
      "\"&": 4276,
      "Read": 4277,
      "gen": 4278,
      "chain": 4279,
      "msg": 4280,
      "f6": 4281,
      "lated": 4282,
      "b7": 4283,
      "generic": 4284,
      "manager": 4285,
      "/&": 4286,
      "Desk": 4287,
      "TI": 4288,
      "f9": 4289,
      "tax": 4290,
      "while": 4291,
      "hash": 4292,
      "Change": 4293,
      "512": 4294,
      "chedul": 4295,
      "=\"<": 4296,
      "med": 4297,
      "3C": 4298,
      "Desktop": 4299,
      "access": 4300,
      "OT": 4301,
      "bundle": 4302,
      "material": 4303,
      "memory": 4304,
      "________________": 4305,
      "ilable": 4306,
      ")[": 4307,
      "ignore": 4308,
      "ivity": 4309,
      "_a": 4310,
      "Var": 4311,
      "Down": 4312,
      "gy": 4313,
      "########": 4314,
      "versions": 4315,
      "ci": 4316,
      "don": 4317,
      "err": 4318,
      "RELE": 4319,
      ").</": 4320,
      "mod": 4321,
      "channel": 4322,
      "apply": 4323,
      "sv": 4324,
      "ALL": 4325,
      "Y_": 4326,
      "OL": 4327,
      "folder": 4328,
      "thread_": 4329,
      "MA": 4330,
      "Git": 4331,
      "placehol": 4332,
      "lock": 4333,
      "HEAD": 4334,
      "a8": 4335,
      "084": 4336,
      "c4": 4337,
      "requests": 4338,
      "tried": 4339,
      "Atom": 4340,
      "been": 4341,
      "emit": 4342,
      "Plugin": 4343,
      "vlet": 4344,
      "rop": 4345,
      "asar": 4346,
      "cale": 4347,
      "Su": 4348,
      "below": 4349,
      "hello": 4350,
      "Services": 4351,
      "dia": 4352,
      "tree": 4353,
      "STE": 4354,
      "rpc": 4355,
      "t_": 4356,
      "lean": 4357,
      "Cache": 4358,
      "did": 4359,
      "compat": 4360,
      "Mac": 4361,
      "above": 4362,
      "Program": 4363,
      "ind": 4364,
      "ported": 4365,
      "register": 4366,
      "FIL": 4367,
      ">,<": 4368,
      "Actual": 4369,
      "normal": 4370,
      "plt": 4371,
      "different": 4372,
      ">=\"<": 4373,
      "implement": 4374,
      "b6": 4375,
      "anti": 4376,
      "php": 4377,
      "two": 4378,
      "v8": 4379,
      "Is": 4380,
      "_un": 4381,
      "built": 4382,
      "uble": 4383,
      "\\\"": 4384,
      "cing": 4385,
      "fire": 4386,
      ";::": 4387,
      "available": 4388,
      "ier": 4389,
      "Platform": 4390,
      "NN": 4391,
      "sdk": 4392,
      "submit": 4393,
      "Disp": 4394,
      "chrome": 4395,
      "pect": 4396,
      "ED_": 4397,
      "generated": 4398,
      "sm": 4399,
      "launch": 4400,
      "3f": 4401,
      "Public": 4402,
      "win32": 4403,
      "■■": 4404,
      "inner": 4405,
      "gcc": 4406,
      "Behavior": 4407,
      "sql": 4408,
      "ie": 4409,
      "utable": 4410,
      "tech": 4411,
      "Running": 4412,
      "exit": 4413,
      "x64": 4414,
      "ward": 4415,
      "itor": 4416,
      "star": 4417,
      "});": 4418,
      "parent": 4419,
      "eval": 4420,
      "mpl": 4421,
      "tn": 4422,
      "ATION": 4423,
      "tribute": 4424,
      "sec": 4425,
      "gu": 4426,
      "_app": 4427,
      "We": 4428,
      "Init": 4429,
      "endor": 4430,
      "xml": 4431,
      "coder": 4432,
      "!</": 4433,
      "think": 4434,
      "rate": 4435,
      "address": 4436,
      "Dependen": 4437,
      "custom": 4438,
      "DEVELOPER_": 4439,
      "Au": 4440,
      "cap": 4441,
      "Tools": 4442,
      "Dev": 4443,
      "windows": 4444,
      "metadata": 4445,
      "foc": 4446,
      ";\"><": 4447,
      "Runtime": 4448,
      "cheduler": 4449,
      "spect": 4450,
      "gor": 4451,
      "entry": 4452,
      "ending": 4453,
      "imal": 4454,
      "MB": 4455,
      ">/": 4456,
      "ces": 4457,
      "under": 4458,
      "cer": 4459,
      "dav": 4460,
      "_C": 4461,
      "Min": 4462,
      "lib64": 4463,
      ";/</": 4464,
      "c5": 4465,
      "pression": 4466,
      "Microsoft": 4467,
      "rout": 4468,
      "Client": 4469,
      "origin": 4470,
      "d8": 4471,
      "ns": 4472,
      "Lib": 4473,
      "pt": 4474,
      "168": 4475,
      ">:</": 4476,
      "vendor": 4477,
      "DER": 4478,
      "aries": 4479,
      "proc": 4480,
      "sport": 4481,
      "Sub": 4482,
      "===": 4483,
      "*/": 4484,
      "e8": 4485,
      "perf": 4486,
      "success": 4487,
      "asic": 4488,
      "RELEASE": 4489,
      "dict": 4490,
      "ving": 4491,
      "3a": 4492,
      "Line": 4493,
      "ason": 4494,
      "bro": 4495,
      "ling": 4496,
      "Ref": 4497,
      "BUILD_": 4498,
      "events": 4499,
      "set_": 4500,
      "Cel": 4501,
      "reg": 4502,
      "Any": 4503,
      "declar": 4504,
      "Contain": 4505,
      "Operating": 4506,
      "256": 4507,
      "ually": 4508,
      "TAR": 4509,
      "2F": 4510,
      "Perform": 4511,
      "Num": 4512,
      "tifier": 4513,
      "rid": 4514,
      "Cannot": 4515,
      "]<": 4516,
      "SE": 4517,
      "120": 4518,
      "spar": 4519,
      "\">/": 4520,
      "axis": 4521,
      "IP": 4522,
      "HO": 4523,
      "_run": 4524,
      "these": 4525,
      ">[<": 4526,
      "��": 4527,
      "mary": 4528,
      "remote": 4529,
      "Controller": 4530,
      "librust": 4531,
      "2020": 4532,
      "dj": 4533,
      "missing": 4534,
      "unit": 4535,
      "TER": 4536,
      "Stack": 4537,
      "expect": 4538,
      "Create": 4539,
      "d4": 4540,
      "part": 4541,
      "Du": 4542,
      "active": 4543,
      "decla": 4544,
      "ride": 4545,
      "wrapper": 4546,
      "move": 4547,
      "WARNING": 4548,
      "occ": 4549,
      "scope": 4550,
      "fb": 4551,
      "JS": 4552,
      "venv": 4553,
      "bet": 4554,
      "Access": 4555,
      "bot": 4556,
      "Power": 4557,
      "Callback": 4558,
      ":///": 4559,
      "devices": 4560,
      "4j": 4561,
      "Auth": 4562,
      "13084": 4563,
      "_output": 4564,
      "fs": 4565,
      "exports": 4566,
      "complete": 4567,
      "gg": 4568,
      "PATH": 4569,
      "full": 4570,
      "gpu": 4571,
      "testing": 4572,
      "Add": 4573,
      "VM": 4574,
      "ben": 4575,
      "f8": 4576,
      "bytes": 4577,
      "Ht": 4578,
      "latest": 4579,
      "something": 4580,
      "must": 4581,
      "Proxy": 4582,
      "[[": 4583,
      "--&": 4584,
      "deprecated": 4585,
      "All": 4586,
      "Server": 4587,
      "close": 4588,
      "_2": 4589,
      "a7": 4590,
      "alias": 4591,
      "Or": 4592,
      "hpp": 4593,
      "queue": 4594,
      "them": 4595,
      "uring": 4596,
      "loop": 4597,
      "EST": 4598,
      "syntax": 4599,
      "Iss": 4600,
      "mkl_": 4601,
      "ground": 4602,
      "../../": 4603,
      "CLANG": 4604,
      "upgra": 4605,
      "parser": 4606,
      "AndroidTest": 4607,
      "'),": 4608,
      "ift": 4609,
      "included": 4610,
      "previous": 4611,
      "*.": 4612,
      "Wrapper": 4613,
      "c2": 4614,
      "tbody": 4615,
      "cept": 4616,
      "global": 4617,
      "Device": 4618,
      "COMP": 4619,
      "argument": 4620,
      "hook": 4621,
      "';": 4622,
      "press": 4623,
      "SI": 4624,
      "lish": 4625,
      "pointer": 4626,
      "shell": 4627,
      "symbo": 4628,
      "results": 4629,
      "Get": 4630,
      "vision": 4631,
      "olean": 4632,
      "glide": 4633,
      ")&": 4634,
      ")]": 4635,
      "each": 4636,
      "ango": 4637,
      "Bug": 4638,
      "nan": 4639,
      "ped": 4640,
      "Flow": 4641,
      "btn": 4642,
      "WOR": 4643,
      "dag": 4644,
      "UnitTest": 4645,
      "\")": 4646,
      "params": 4647,
      "Output": 4648,
      "stand": 4649,
      "Listen": 4650,
      "sparse": 4651,
      "192": 4652,
      "Met": 4653,
      "mon": 4654,
      "ATE_": 4655,
      "resh": 4656,
      "pg": 4657,
      "mak": 4658,
      "llvm": 4659,
      "ince": 4660,
      "iting": 4661,
      "Stat": 4662,
      "Page": 4663,
      "prim": 4664,
      "fit": 4665,
      "they": 4666,
      "oug": 4667,
      "LE_": 4668,
      "()</": 4669,
      "conver": 4670,
      "0_": 4671,
      "generator": 4672,
      "beli": 4673,
      "Proto": 4674,
      "fp": 4675,
      "Symfony": 4676,
      "deploy": 4677,
      "closure": 4678,
      "flutter_tools": 4679,
      "old": 4680,
      "████": 4681,
      "environment": 4682,
      "b5": 4683,
      "ertion": 4684,
      "binary": 4685,
      "Download": 4686,
      "'&": 4687,
      "cast": 4688,
      "working": 4689,
      "description": 4690,
      "bed": 4691,
      "cannot": 4692,
      "****************************************************************": 4693,
      "lis": 4694,
      "Exten": 4695,
      "metr": 4696,
      "Unknown": 4697,
      "future": 4698,
      "components": 4699,
      "bind": 4700,
      "video": 4701,
      "menu": 4702,
      "Native": 4703,
      "0xc820": 4704,
      "believe": 4705,
      "dispatch": 4706,
      "_data": 4707,
      "GPU": 4708,
      "[-": 4709,
      "USE_": 4710,
      "Compiler": 4711,
      "e9": 4712,
      "miniconda": 4713,
      "fd": 4714,
      "loss": 4715,
      "callback": 4716,
      "Mar": 4717,
      "Reference": 4718,
      "Variable": 4719,
      "left": 4720,
      "Julia": 4721,
      "CONT": 4722,
      "mt": 4723,
      "108": 4724,
      ">;": 4725,
      "Document": 4726,
      "to_": 4727,
      "apk": 4728,
      "INST": 4729,
      "mount": 4730,
      "Connection": 4731,
      "occur": 4732,
      "Using": 4733,
      "scan": 4734,
      "configure": 4735,
      "().": 4736,
      "pid": 4737,
      "none": 4738,
      "rule": 4739,
      "Log": 4740,
      ":\"": 4741,
      "every": 4742,
      "TY": 4743,
      "uple": 4744,
      "Http": 4745,
      "jit": 4746,
      "netty": 4747,
      "sent": 4748,
      "Builder": 4749,
      "ysql": 4750,
      "production": 4751,
      "ndebug": 4752,
      "distri": 4753,
      "driver": 4754,
      "wever": 4755,
      "angular2": 4756,
      "seconds": 4757,
      "darwin": 4758,
      "Net": 4759,
      "Deleg": 4760,
      "coun": 4761,
      "LOC": 4762,
      "chen": 4763,
      "props": 4764,
      "provider": 4765,
      "[&": 4766,
      "kins": 4767,
      "son": 4768,
      "als": 4769,
      "2022": 4770,
      "kubelet": 4771,
      "Size": 4772,
      "ARY": 4773,
      "107": 4774,
      "started": 4775,
      "||": 4776,
      "DebugAndroidTest": 4777,
      "lot": 4778,
      "lite": 4779,
      "define": 4780,
      "redis": 4781,
      "simple": 4782,
      "roll": 4783,
      "================================": 4784,
      "bility": 4785,
      "her": 4786,
      "_Z": 4787,
      "vok": 4788,
      "Start": 4789,
      "librustc": 4790,
      "Container": 4791,
      "CLANG_": 4792,
      "uses": 4793,
      "prop": 4794,
      "stor": 4795,
      "Tar": 4796,
      "::</": 4797,
      "txt": 4798,
      "scikit": 4799,
      "Session": 4800,
      "provide": 4801,
      "metho": 4802,
      "identifier": 4803,
      "Mer": 4804,
      "ruid": 4805,
      "3rd": 4806,
      "ed_": 4807,
      "194": 4808,
      "updateChild": 4809,
      "know": 4810,
      "2e": 4811,
      "Reproduce": 4812,
      "cpython": 4813,
      "ditional": 4814,
      "tforms": 4815,
      "Foo": 4816,
      "ME": 4817,
      "layers": 4818,
      "connect": 4819,
      "{\\": 4820,
      "New": 4821,
      "SYSTE": 4822,
      "cra": 4823,
      "\">::</": 4824,
      "aly": 4825,
      "_tensorflow": 4826,
      "Engine": 4827,
      "313": 4828,
      "2b": 4829,
      "Control": 4830,
      "tab": 4831,
      "display": 4832,
      "layout": 4833,
      "olume": 4834,
      "PE": 4835,
      "protocol": 4836,
      "((": 4837,
      "000000": 4838,
      "alen": 4839,
      "idden": 4840,
      "mean": 4841,
      "ilar": 4842,
      "LAG": 4843,
      "creating": 4844,
      "Feb": 4845,
      "_size": 4846,
      "SYSTEM_": 4847,
      "Activity": 4848,
      "properties": 4849,
      "HTML": 4850,
      "✓]": 4851,
      "bump": 4852,
      "appe": 4853,
      "hr": 4854,
      "{'": 4855,
      "116": 4856,
      "failure": 4857,
      "Eval": 4858,
      "DATE": 4859,
      "a4": 4860,
      "1d": 4861,
      ";=": 4862,
      "IO": 4863,
      "sets": 4864,
      "Zone": 4865,
      ";\\": 4866,
      "berg": 4867,
      "get_vars": 4868,
      "rot": 4869,
      "2845": 4870,
      "buffer": 4871,
      "*,": 4872,
      "timeout": 4873,
      "come": 4874,
      "ctl": 4875,
      "lines": 4876,
      "1ms": 4877,
      "height": 4878,
      "].": 4879,
      "_FIL": 4880,
      "\">+": 4881,
      "lint": 4882,
      "Use": 4883,
      "extends": 4884,
      "════════════════": 4885,
      "ASS": 4886,
      "Bar": 4887,
      "bumptech": 4888,
      "*)": 4889,
      "collect": 4890,
      "ff7": 4891,
      "jen": 4892,
      "rl": 4893,
      "exe": 4894,
      "fully": 4895,
      "empty": 4896,
      "fast": 4897,
      "GC": 4898,
      "f0": 4899,
      "Performing": 4900,
      "duce": 4901,
      "Ter": 4902,
      "classes": 4903,
      "ki": 4904,
      "check_": 4905,
      "placehold_": 4906,
      "binding": 4907,
      "3rdparty": 4908,
      "Chrome": 4909,
      "Form": 4910,
      "ComponentElement": 4911,
      "Registry": 4912,
      "runner": 4913,
      "ctions": 4914,
      "DB": 4915,
      "TensorFlow": 4916,
      "rag": 4917,
      "MM": 4918,
      "dynamic": 4919,
      "final": 4920,
      "pat": 4921,
      "steps": 4922,
      "keys": 4923,
      "font": 4924,
      "255": 4925,
      "Duplicate": 4926,
      "lap": 4927,
      ";(": 4928,
      "Query": 4929,
      "reflect": 4930,
      "\">#</": 4931,
      "Ub": 4932,
      "atta": 4933,
      "backen": 4934,
      "_ZN": 4935,
      "3B": 4936,
      "mysql": 4937,
      "ae": 4938,
      "APP": 4939,
      "Clo": 4940,
      "');": 4941,
      "rbp": 4942,
      "jl_": 4943,
      ":&": 4944,
      "Tor": 4945,
      "neo": 4946,
      "bench": 4947,
      "3154": 4948,
      "?,": 4949,
      "arti": 4950,
      "OUR": 4951,
      "Le": 4952,
      "itch": 4953,
      "columns": 4954,
      "Field": 4955,
      "Cap": 4956,
      "CES": 4957,
      "executor": 4958,
      "_path": 4959,
      "0x000000000000": 4960,
      "Ubuntu": 4961,
      "1562845": 4962,
      "bj": 4963,
      "gloo": 4964,
      "\">$</": 4965,
      "CF": 4966,
      "3693": 4967,
      "Back": 4968,
      "Sing": 4969,
      "ross": 4970,
      "f7": 4971,
      "Column": 4972,
      "Descrip": 4973,
      "logs": 4974,
      "mach": 4975,
      "Target": 4976,
      "TypeScript": 4977,
      "equ": 4978,
      "spli": 4979,
      "109": 4980,
      "bly": 4981,
      "Torch": 4982,
      "please": 4983,
      "nextgram": 4984,
      "1b": 4985,
      "features": 4986,
      "constructor": 4987,
      "138": 4988,
      "auchen": 4989,
      "auchenberg": 4990,
      "a5": 4991,
      "even": 4992,
      "ni": 4993,
      "────": 4994,
      "HEADER": 4995,
      "jenkins": 4996,
      "_info": 4997,
      "required": 4998,
      "TARGET": 4999,
      "??": 5000,
      "208": 5001,
      "_impl": 5002,
      "both": 5003,
      "3_": 5004,
      "limit": 5005,
      "ather": 5006,
      "aml": 5007,
      "aba": 5008,
      "86d": 5009,
      "otype": 5010,
      "control": 5011,
      "settings": 5012,
      "__main": 5013,
      "())": 5014,
      "renderer": 5015,
      "Date": 5016,
      "See": 5017,
      "A_": 5018,
      "formed": 5019,
      "eni": 5020,
      "distutils": 5021,
      "1e": 5022,
      "appear": 5023,
      "iso": 5024,
      "being": 5025,
      "dete": 5026,
      "__main__": 5027,
      "similar": 5028,
      "dependency": 5029,
      "MS": 5030,
      "TP": 5031,
      "watch": 5032,
      "/\"": 5033,
      "placehold_placehold_": 5034,
      "aging": 5035,
      "yml": 5036,
      "Private": 5037,
      "PO": 5038,
      "basic": 5039,
      "names": 5040,
      "uage": 5041,
      "b9": 5042,
      "step": 5043,
      "LIBR": 5044,
      "weight": 5045,
      "bool": 5046,
      "second": 5047,
      "ThreadPool": 5048,
      "Wa": 5049,
      "allen": 5050,
      "a9": 5051,
      "d5": 5052,
      "[✓]": 5053,
      "gex": 5054,
      "Sup": 5055,
      "arguments": 5056,
      "sle": 5057,
      "ale": 5058,
      "114": 5059,
      "parameters": 5060,
      "Dis": 5061,
      "location": 5062,
      "fine": 5063,
      "Options": 5064,
      "ffect": 5065,
      "items": 5066,
      "Listener": 5067,
      "VE_": 5068,
      "sort": 5069,
      "You": 5070,
      "tag": 5071,
      "header": 5072,
      "named": 5073,
      "night": 5074,
      "FAIL": 5075,
      "Lay": 5076,
      "Simulator": 5077,
      "multiple": 5078,
      "demo": 5079,
      "stats": 5080,
      "bc": 5081,
      "aro": 5082,
      "\">+</": 5083,
      "323": 5084,
      "imgproc": 5085,
      "a2": 5086,
      "allenge": 5087,
      "v2": 5088,
      "...</": 5089,
      "7fa2a": 5090,
      ">):": 5091,
      "proj": 5092,
      "fill": 5093,
      "Pack": 5094,
      "rendering": 5095,
      "d7": 5096,
      "Dex": 5097,
      "\">\\": 5098,
      "providers": 5099,
      "(),": 5100,
      "ableBeanFactory": 5101,
      "SH": 5102,
      "desc": 5103,
      "django": 5104,
      "Visual": 5105,
      "ototype": 5106,
      "FI": 5107,
      "druid": 5108,
      "times": 5109,
      "ox": 5110,
      "chron": 5111,
      "'-": 5112,
      "=\"&": 5113,
      "[/": 5114,
      "head": 5115,
      "another": 5116,
      "DEP": 5117,
      "virtu": 5118,
      "Ut": 5119,
      "libraries": 5120,
      "ing_": 5121,
      ">),": 5122,
      "Mult": 5123,
      "ari": 5124,
      "Bundle": 5125,
      "eno": 5126,
      "too": 5127,
      "statement": 5128,
      "Ge": 5129,
      "S_DIR": 5130,
      "Com": 5131,
      "nor": 5132,
      "{<": 5133,
      "118": 5134,
      "models": 5135,
      "]]": 5136,
      "Na": 5137,
      "still": 5138,
      "}\\": 5139,
      "104": 5140,
      "FOL": 5141,
      "MainProcess": 5142,
      "Sources": 5143,
      "whe": 5144,
      "unicode": 5145,
      "neo4j": 5146,
      "Imp": 5147,
      "Update": 5148,
      "WORK": 5149,
      "aded": 5150,
      "ROOT": 5151,
      "keras": 5152,
      "Temp": 5153,
      "Buffer": 5154,
      "AND": 5155,
      "AVE_": 5156,
      ",\"": 5157,
      "Configuration": 5158,
      "focused": 5159,
      "fili": 5160,
      "f2": 5161,
      "_U": 5162,
      "Ca": 5163,
      "stamp": 5164,
      "115": 5165,
      "archive": 5166,
      "Internal": 5167,
      "land": 5168,
      "arm64": 5169,
      "isn": 5170,
      "ough": 5171,
      "Can": 5172,
      "fk": 5173,
      "functions": 5174,
      "PowerTo": 5175,
      "reason": 5176,
      "~/": 5177,
      "chunk": 5178,
      "Loop": 5179,
      "11e5": 5180,
      "106": 5181,
      "TypeError": 5182,
      "sun": 5183,
      "Google": 5184,
      "nightly": 5185,
      "bean": 5186,
      "virtualen": 5187,
      "math": 5188,
      ";},": 5189,
      "Spe": 5190,
      "cation": 5191,
      "iOS": 5192,
      "\">=&": 5193,
      "sumer": 5194,
      "sequ": 5195,
      "fixed": 5196,
      "999": 5197,
      "0x7fff8": 5198,
      "_IN": 5199,
      "Intel": 5200,
      "ansible_": 5201,
      "JEC": 5202,
      "x_": 5203,
      "alg": 5204,
      "e3": 5205,
      "got": 5206,
      "abi": 5207,
      "2524": 5208,
      "ors": 5209,
      "concurrent": 5210,
      "LOG": 5211,
      "mix": 5212,
      "pol": 5213,
      "ara": 5214,
      "indi": 5215,
      "mali": 5216,
      "IC": 5217,
      "_O": 5218,
      "Could": 5219,
      "Fire": 5220,
      "arched": 5221,
      "RenderObject": 5222,
      "HAVE_": 5223,
      "Platforms": 5224,
      ";;": 5225,
      "override": 5226,
      "rand": 5227,
      "deps": 5228,
      "dbc": 5229,
      "={": 5230,
      "schema": 5231,
      "cate": 5232,
      "zip": 5233,
      "filiph": 5234,
      "oi": 5235,
      ",<": 5236,
      "clone": 5237,
      ";]": 5238,
      "y_": 5239,
      "Af": 5240,
      "ASK": 5241,
      "There": 5242,
      "nav": 5243,
      ">\"<": 5244,
      "mu": 5245,
      "386": 5246,
      "acc": 5247,
      "assign": 5248,
      "14716": 5249,
      "thead": 5250,
      "add_": 5251,
      "from_": 5252,
      "nc": 5253,
      "dash": 5254,
      "'<": 5255,
      "attr": 5256,
      "serve": 5257,
      "ider": 5258,
      "ops": 5259,
      "LC": 5260,
      "c848": 5261,
      "wire": 5262,
      "alib": 5263,
      "kernel": 5264,
      "diag": 5265,
      "123": 5266,
      "logging": 5267,
      "0x7fff9": 5268,
      "=(": 5269,
      "upgrade": 5270,
      "cry": 5271,
      "Gra": 5272,
      "ium": 5273,
      "Lang": 5274,
      "Sk": 5275,
      "implicit": 5276,
      "252414716": 5277,
      "c848252414716": 5278,
      "c84825241471686d": 5279,
      "tern": 5280,
      "gof": 5281,
      "Dependency": 5282,
      "Issue": 5283,
      "begin": 5284,
      "ugh": 5285,
      "straint": 5286,
      "Widget": 5287,
      "olver": 5288,
      "embed": 5289,
      "ABLE_": 5290,
      "${": 5291,
      "inf": 5292,
      "searched": 5293,
      "op_": 5294,
      "ways": 5295,
      "d9": 5296,
      "methods": 5297,
      "UTC": 5298,
      "?:": 5299,
      "expression": 5300,
      "Protocol": 5301,
      "send": 5302,
      "libs": 5303,
      "After": 5304,
      "transport": 5305,
      "Future": 5306,
      "AY": 5307,
      "alformed": 5308,
      "ubuntu": 5309,
      "400": 5310,
      "regex": 5311,
      "alibaba": 5312,
      "warn": 5313,
      "diff": 5314,
      "extensions": 5315,
      "101": 5316,
      "echo": 5317,
      "ian": 5318,
      ",&": 5319,
      "f4": 5320,
      "152": 5321,
      "implementation": 5322,
      "related": 5323,
      "Load": 5324,
      "mig": 5325,
      "run_": 5326,
      "_pthread": 5327,
      "libsystem_pthread": 5328,
      "break": 5329,
      "gest": 5330,
      "specified": 5331,
      "ily": 5332,
      "_PRO": 5333,
      "ginx": 5334,
      "since": 5335,
      "3000": 5336,
      "140": 5337,
      "_cuda": 5338,
      "nodes": 5339,
      "b2": 5340,
      "prof": 5341,
      "dum": 5342,
      ">],": 5343,
      "figure": 5344,
      "allback": 5345,
      "INSTALL": 5346,
      "FOLDER": 5347,
      "seriali": 5348,
      "LL": 5349,
      "nginx": 5350,
      "Provid": 5351,
      "tin": 5352,
      "POR": 5353,
      "rx": 5354,
      "105": 5355,
      "f77": 5356,
      "n_": 5357,
      "rece": 5358,
      "center": 5359,
      "OpenCV": 5360,
      "112": 5361,
      "drop": 5362,
      "_base": 5363,
      "py3": 5364,
      "ThreadPoolExecutor": 5365,
      "calar": 5366,
      "130": 5367,
      "Termin": 5368,
      "car": 5369,
      "Hello": 5370,
      "Dispatch": 5371,
      "checking": 5372,
      "1752": 5373,
      "stable": 5374,
      "Annot": 5375,
      "linalg": 5376,
      "mail": 5377,
      "ENT_": 5378,
      "300": 5379,
      "Dubbo": 5380,
      "typescript": 5381,
      "datetime": 5382,
      "_gpu": 5383,
      "sources": 5384,
      "129": 5385,
      "once": 5386,
      "terminal": 5387,
      "-<": 5388,
      "hidden": 5389,
      "apping": 5390,
      "36m": 5391,
      "398": 5392,
      "Spr": 5393,
      "AL_": 5394,
      "gif": 5395,
      "enable": 5396,
      "ranch": 5397,
      "labels": 5398,
      "TASK": 5399,
      "admap": 5400,
      "125": 5401,
      "summary": 5402,
      "with_": 5403,
      "Report": 5404,
      "forge": 5405,
      "postcss": 5406,
      "134": 5407,
      "david": 5408,
      "\"},": 5409,
      "kubectl": 5410,
      "coding": 5411,
      "ators": 5412,
      "Servlet": 5413,
      "building": 5414,
      "Celery": 5415,
      "FOLDER_PATH": 5416,
      "119": 5417,
      "documentation": 5418,
      "listen": 5419,
      "Resource": 5420,
      "0x000070000": 5421,
      "ATFOR": 5422,
      "q_": 5423,
      "Scre": 5424,
      "Screen": 5425,
      "Extension": 5426,
      "\"^": 5427,
      "phase": 5428,
      "_malformed": 5429,
      ">&": 5430,
      "_internal": 5431,
      "backtrace": 5432,
      "ignore_malformed": 5433,
      "builder": 5434,
      "Spring": 5435,
      "cmd": 5436,
      "dep": 5437,
      "otal": 5438,
      "146": 5439,
      "Kernel": 5440,
      "148": 5441,
      "172": 5442,
      "enabled": 5443,
      "Glide": 5444,
      "Mem": 5445,
      "PC": 5446,
      "prototype": 5447,
      "HTTP": 5448,
      "containers": 5449,
      "However": 5450,
      "fc": 5451,
      "Support": 5452,
      "bose": 5453,
      "via": 5454,
      "CT_": 5455,
      "};": 5456,
      "Scan": 5457,
      "scheduler": 5458,
      "supported": 5459,
      "126": 5460,
      "DynamicRelease": 5461,
      "Response": 5462,
      "meta": 5463,
      "headers": 5464,
      "solution": 5465,
      "jbj": 5466,
      "}]": 5467,
      "fmk": 5468,
      "pljbj": 5469,
      "apdk": 5470,
      "adopljbj": 5471,
      "_ZN6": 5472,
      "enihi": 5473,
      "fkapdk": 5474,
      "oienihi": 5475,
      "gofadopljbj": 5476,
      "admapgofadopljbj": 5477,
      "fmkadmapgofadopljbj": 5478,
      "fkapdkoienihi": 5479,
      "fmkadmapgofadopljbjfkapdkoienihi": 5480,
      "romium": 5481,
      "DynamicProfile": 5482,
      "tribe": 5483,
      "verbose": 5484,
      "rix": 5485,
      "Gro": 5486,
      "ibility": 5487,
      "optional": 5488,
      "Host": 5489,
      "177": 5490,
      ";^": 5491,
      "TION": 5492,
      "crash": 5493,
      "cha": 5494,
      "called": 5495,
      "Adap": 5496,
      "enum": 5497,
      "isolate": 5498,
      "ose": 5499,
      "jira": 5500,
      "Ba": 5501,
      "metrics": 5502,
      "Here": 5503,
      "secur": 5504,
      "184": 5505,
      "deleted": 5506,
      "├──": 5507,
      "Post": 5508,
      "LIN": 5509,
      "bra": 5510,
      "security": 5511,
      "X_": 5512,
      "adam": 5513,
      "TS23": 5514,
      "Root": 5515,
      "arent": 5516,
      "_version": 5517,
      "139": 5518,
      "vers": 5519,
      "exper": 5520,
      "database": 5521,
      "166": 5522,
      "Defin": 5523,
      "3b": 5524,
      "Sharding": 5525,
      "dim": 5526,
      "primary": 5527,
      "ification": 5528,
      "^^^^": 5529,
      "_ZN6middle": 5530,
      "integra": 5531,
      "UE": 5532,
      "rough": 5533,
      "Apple": 5534,
      "reprodu": 5535,
      "children": 5536,
      "DataFrame": 5537,
      "exists": 5538,
      "Item": 5539,
      "strict": 5540,
      "CLANG_WARN": 5541,
      "GCC": 5542,
      "Accessor": 5543,
      "libprotobuf": 5544,
      "Ac": 5545,
      "Workspace": 5546,
      "force": 5547,
      "@@": 5548,
      "sand": 5549,
      "\">.": 5550,
      "................................................................": 5551,
      "mkldnn": 5552,
      "Dire": 5553,
      "rebuild": 5554,
      "144": 5555,
      "big": 5556,
      "ome": 5557,
      "patch": 5558,
      "existing": 5559,
      "ko": 5560,
      "tls": 5561,
      "Some": 5562,
      "lign": 5563,
      "around": 5564,
      "NS": 5565,
      "Pi": 5566,
      "PLATFOR": 5567,
      "unique": 5568,
      "wind": 5569,
      "'\"": 5570,
      "specific": 5571,
      "Action": 5572,
      "Copy": 5573,
      "pages": 5574,
      "isystem": 5575,
      "Changed": 5576,
      "det": 5577,
      "clean": 5578,
      "local_config": 5579,
      "117": 5580,
      "build_": 5581,
      "posed": 5582,
      "Delegate": 5583,
      "Tok": 5584,
      "NOT": 5585,
      "conversion": 5586,
      "cs": 5587,
      "():": 5588,
      "1a": 5589,
      "hos": 5590,
      "folders": 5591,
      "yaml": 5592,
      "e000": 5593,
      "Dart": 5594,
      "inser": 5595,
      "posal": 5596,
      "voker": 5597,
      "analy": 5598,
      "Of": 5599,
      "interpo": 5600,
      "collection": 5601,
      "hist": 5602,
      "enter": 5603,
      "arr": 5604,
      "pipe": 5605,
      "Instance": 5606,
      "f5": 5607,
      "Rece": 5608,
      "yes": 5609,
      "detail": 5610,
      "ynchron": 5611,
      "):</": 5612,
      "shared": 5613,
      "facts": 5614,
      ";#": 5615,
      "BUILD": 5616,
      "Iter": 5617,
      "136": 5618,
      "\">==": 5619,
      "Arg": 5620,
      "compl": 5621,
      "ither": 5622,
      "initialized": 5623,
      "++/": 5624,
      "task_": 5625,
      "ident": 5626,
      "Fla": 5627,
      "draw": 5628,
      "FILE_": 5629,
      "Autowire": 5630,
      "sy": 5631,
      "expr": 5632,
      "firebase": 5633,
      "PrivateFrameworks": 5634,
      "Kit": 5635,
      "allocator": 5636,
      "playbook": 5637,
      "Thank": 5638,
      "_key": 5639,
      "alle": 5640,
      "Args": 5641,
      "needs": 5642,
      "single": 5643,
      "jdbc": 5644,
      "Desc": 5645,
      "router": 5646,
      "attribute": 5647,
      "scra": 5648,
      "Spec": 5649,
      "0x7ff": 5650,
      "icon": 5651,
      "join": 5652,
      "declared": 5653,
      "cfg": 5654,
      "ween": 5655,
      "nccl": 5656,
      "Group": 5657,
      "validate": 5658,
      "Play": 5659,
      "150": 5660,
      "replace": 5661,
      "Provider": 5662,
      "boolean": 5663,
      "fails": 5664,
      "Int64": 5665,
      "dummy": 5666,
      "JAV": 5667,
      "cover": 5668,
      "axes": 5669,
      "loaded": 5670,
      "AVX": 5671,
      "REPL": 5672,
      "OK": 5673,
      "eded": 5674,
      "ared": 5675,
      "Minimal": 5676,
      "GCC_": 5677,
      "Props": 5678,
      "many": 5679,
      "hosted": 5680,
      "ignor": 5681,
      "Success": 5682,
      "VS": 5683,
      "pose": 5684,
      "through": 5685,
      "LIBRARY": 5686,
      "NaN": 5687,
      "pret": 5688,
      "scanning": 5689,
      "network": 5690,
      "vector": 5691,
      "stop": 5692,
      "prepare": 5693,
      "brow": 5694,
      "sample": 5695,
      "328": 5696,
      "sug": 5697,
      "elds": 5698,
      "FAUL": 5699,
      "might": 5700,
      "socket": 5701,
      "question": 5702,
      "0x00000000": 5703,
      "based": 5704,
      "finish": 5705,
      "RIP": 5706,
      "a_": 5707,
      "recor": 5708,
      "_mode": 5709,
      "wise": 5710,
      "Layout": 5711,
      "compatible": 5712,
      "Utils": 5713,
      ";);": 5714,
      "ha": 5715,
      "}},": 5716,
      "Timeout": 5717,
      "storage": 5718,
      "three": 5719,
      "delete": 5720,
      "Other": 5721,
      "umpy": 5722,
      "DEFAUL": 5723,
      "intel": 5724,
      "PowerToys": 5725,
      ";@": 5726,
      "IDE": 5727,
      "2013": 5728,
      "helpers": 5729,
      "executable": 5730,
      "500": 5731,
      "icons": 5732,
      "present": 5733,
      "proposal": 5734,
      "Vali": 5735,
      "Over": 5736,
      "branch": 5737,
      "Terminal": 5738,
      "Inumpy": 5739,
      "between": 5740,
      "_py": 5741,
      "rv": 5742,
      "Exit": 5743,
      "integrate": 5744,
      "catal": 5745,
      "Description": 5746,
      "3ms": 5747,
      "maz": 5748,
      "cm": 5749,
      ">\\": 5750,
      "Processor": 5751,
      "superset": 5752,
      "dockerized": 5753,
      "lue": 5754,
      "Foundation": 5755,
      "922": 5756,
      "F_": 5757,
      "Hub": 5758,
      "_module": 5759,
      "nil": 5760,
      "asure": 5761,
      "11e6": 5762,
      "_model": 5763,
      "split": 5764,
      "dc": 5765,
      "Select": 5766,
      "tz": 5767,
      "Import": 5768,
      "One": 5769,
      "TR": 5770,
      "libc": 5771,
      "own": 5772,
      "machine": 5773,
      "IZ": 5774,
      "_execute": 5775,
      "compute": 5776,
      "loading": 5777,
      "ming": 5778,
      "Annotation": 5779,
      "+--": 5780,
      "aste": 5781,
      "How": 5782,
      ")\\": 5783,
      "\">%": 5784,
      "'],": 5785,
      "iz": 5786,
      "RAME": 5787,
      "ssl": 5788,
      "RAMEWORK": 5789,
      "thrown": 5790,
      "2ms": 5791,
      "Autograd": 5792,
      "signed": 5793,
      "Ne": 5794,
      "alph": 5795,
      "149": 5796,
      "maybe": 5797,
      "DEVI": 5798,
      "revision": 5799,
      "ipping": 5800,
      "safe": 5801,
      "Tree": 5802,
      "iPhoneSimulator": 5803,
      "deployment": 5804,
      "\"\"": 5805,
      "OP": 5806,
      "covery": 5807,
      "unused": 5808,
      "ApplicationContext": 5809,
      "referenced": 5810,
      "111": 5811,
      "ky": 5812,
      "pods": 5813,
      "member": 5814,
      "backends": 5815,
      "=<": 5816,
      "username": 5817,
      "PRODU": 5818,
      "001": 5819,
      "ULL": 5820,
      "Dir": 5821,
      "route": 5822,
      "enu": 5823,
      "ynchronous": 5824,
      "137": 5825,
      "!=": 5826,
      "tun": 5827,
      "Libs": 5828,
      "[],": 5829,
      "Classes": 5830,
      "push": 5831,
      "inside": 5832,
      "abs": 5833,
      "Hi": 5834,
      "normali": 5835,
      "bff": 5836,
      "pb": 5837,
      "launcher": 5838,
      "wal": 5839,
      "247": 5840,
      "Generator": 5841,
      "Table": 5842,
      "nost": 5843,
      "176": 5844,
      "Deno": 5845,
      "keep": 5846,
      "Miss": 5847,
      "lapsed": 5848,
      "2ty": 5849,
      "Wr": 5850,
      "VERSION_": 5851,
      "a1": 5852,
      "d2": 5853,
      "Multi": 5854,
      "_ZN6middle2ty": 5855,
      "fy": 5856,
      "pic": 5857,
      "_e": 5858,
      "req": 5859,
      "aff": 5860,
      "always": 5861,
      "npy": 5862,
      "double": 5863,
      "minion": 5864,
      "definition": 5865,
      "Merge": 5866,
      "clang": 5867,
      "language": 5868,
      "flags": 5869,
      "ING_": 5870,
      "Float": 5871,
      "Scanning": 5872,
      "_load": 5873,
      "d3": 5874,
      "TE": 5875,
      "anon": 5876,
      "es6": 5877,
      "configured": 5878,
      "Sync": 5879,
      "izer": 5880,
      "206": 5881,
      "Rebuild": 5882,
      "removed": 5883,
      "GL": 5884,
      "common_": 5885,
      "ombu": 5886,
      "b1": 5887,
      "filename": 5888,
      "give": 5889,
      "attach": 5890,
      "avx": 5891,
      "Button": 5892,
      "/*": 5893,
      "Single": 5894,
      "volume": 5895,
      "Gu": 5896,
      "refox": 5897,
      "Install": 5898,
      "lined": 5899,
      "clear": 5900,
      "a3": 5901,
      "challenge": 5902,
      "Firebase": 5903,
      "track": 5904,
      "validation": 5905,
      "CLU": 5906,
      "performRebuild": 5907,
      "trans_": 5908,
      "Missing": 5909,
      "eng": 5910,
      "score": 5911,
      "'./": 5912,
      "mot": 5913,
      "Fail": 5914,
      "C4": 5915,
      "background": 5916,
      "ality": 5917,
      "SPR": 5918,
      "optimize": 5919,
      "NU": 5920,
      "pop": 5921,
      "May": 5922,
      "romise": 5923,
      "opencv_test_": 5924,
      "pthread": 5925,
      "245": 5926,
      "stage": 5927,
      "calling": 5928,
      "Operation": 5929,
      "Pending": 5930,
      "bits": 5931,
      "Note": 5932,
      "Status": 5933,
      "Compile": 5934,
      "dient": 5935,
      "media": 5936,
      "gol": 5937,
      "hy": 5938,
      "kind": 5939,
      "distribut": 5940,
      "plicated": 5941,
      "218": 5942,
      "165": 5943,
      "xl": 5944,
      "invalid": 5945,
      "lab": 5946,
      "int64": 5947,
      "080": 5948,
      "■■■■": 5949,
      "zo": 5950,
      "|</": 5951,
      "added": 5952,
      "constraint": 5953,
      "Setting": 5954,
      "lamb": 5955,
      "Fe": 5956,
      "visible": 5957,
      "scrapy": 5958,
      "'(": 5959,
      "TERN": 5960,
      ";.": 5961,
      "bugs": 5962,
      "164": 5963,
      "Ret": 5964,
      "v4": 5965,
      "sen": 5966,
      "virtualenvs": 5967,
      "dot": 5968,
      "repo": 5969,
      "18n": 5970,
      "mis": 5971,
      "password": 5972,
      "anim": 5973,
      "Objects": 5974,
      "END": 5975,
      "points": 5976,
      "4f": 5977,
      "Promise": 5978,
      "on_": 5979,
      "cture": 5980,
      "Example": 5981,
      "lambda": 5982,
      "CE_": 5983,
      "vari": 5984,
      "TestAutograd": 5985,
      "minim": 5986,
      "seg": 5987,
      "ord": 5988,
      "JECT_": 5989,
      "apps": 5990,
      ")(": 5991,
      "158": 5992,
      "dest": 5993,
      "Authent": 5994,
      "Which": 5995,
      "processing": 5996,
      "TEST": 5997,
      "687": 5998,
      "stack_": 5999,
      "rays": 6000,
      "Number": 6001,
      "forward": 6002,
      "157": 6003,
      "ient": 6004,
      "constant": 6005,
      "correctly": 6006,
      "opened": 6007,
      "elements": 6008,
      "Url": 6009,
      "orn": 6010,
      "_dep": 6011,
      "TYPE": 6012,
      "cryp": 6013,
      "cx": 6014,
      "objects": 6015,
      "Que": 6016,
      "WI": 6017,
      "asynchronous": 6018,
      "theme": 6019,
      "currently": 6020,
      "changes": 6021,
      "2_": 6022,
      "vue": 6023,
      "least": 6024,
      "135": 6025,
      "_utils": 6026,
      "csrc": 6027,
      "=\"#": 6028,
      "11ea": 6029,
      "AD_": 6030,
      "AutowireCap": 6031,
      "Direct": 6032,
      "MENT_": 6033,
      "actually": 6034,
      "AutowireCapableBeanFactory": 6035,
      "exp": 6036,
      "modi": 6037,
      "202": 6038,
      "hard": 6039,
      "AbstractAutowireCapableBeanFactory": 6040,
      "','": 6041,
      "11e9": 6042,
      "_index": 6043,
      "golang": 6044,
      "xp": 6045,
      "again": 6046,
      "JavaRes": 6047,
      "gory": 6048,
      "191": 6049,
      "program": 6050,
      "requested": 6051,
      "SYSTEM_DEVELOPER_": 6052,
      "uv": 6053,
      "_fn": 6054,
      "2014": 6055,
      "flask": 6056,
      "verse": 6057,
      "USER": 6058,
      "_FLAG": 6059,
      "ABLE": 6060,
      "b3": 6061,
      "flu": 6062,
      "preset": 6063,
      "LIST": 6064,
      "Only": 6065,
      "local_config_cuda": 6066,
      "Il": 6067,
      "Const": 6068,
      "camer": 6069,
      "2000": 6070,
      "Statement": 6071,
      "iment": 6072,
      "160": 6073,
      "words": 6074,
      "proba": 6075,
      "145": 6076,
      "layer": 6077,
      "sam": 6078,
      "append": 6079,
      "schedule": 6080,
      "Tim": 6081,
      "``": 6082,
      "\">|</": 6083,
      "admin": 6084,
      "sequence": 6085,
      "usage": 6086,
      "Cl": 6087,
      "tags": 6088,
      "Describe": 6089,
      "\">:": 6090,
      "9999": 6091,
      "assertion": 6092,
      "reproducing": 6093,
      "documents": 6094,
      "start_": 6095,
      "ws": 6096,
      "annotation": 6097,
      "illi": 6098,
      "SSH": 6099,
      "Valid": 6100,
      "330": 6101,
      "hint": 6102,
      "gres": 6103,
      "IGN": 6104,
      "disable": 6105,
      "wd": 6106,
      "services": 6107,
      "210": 6108,
      "CI": 6109,
      "eas": 6110,
      "nested": 6111,
      "trig": 6112,
      "180": 6113,
      "max_": 6114,
      "duct": 6115,
      "ValueError": 6116,
      "happens": 6117,
      "Werror": 6118,
      "repro": 6119,
      "istent": 6120,
      "execution": 6121,
      "DNN": 6122,
      "cel": 6123,
      "05E": 6124,
      "_args": 6125,
      "OFF": 6126,
      "ek": 6127,
      "chromium": 6128,
      "wrong": 6129,
      "grpc": 6130,
      "=[": 6131,
      "ene": 6132,
      "disc": 6133,
      "utes": 6134,
      "0x1": 6135,
      "_dynamic": 6136,
      "Assets": 6137,
      "Comple": 6138,
      "given": 6139,
      "d1": 6140,
      "Downloads": 6141,
      "AccessorImpl": 6142,
      "jav": 6143,
      "create_": 6144,
      "macro": 6145,
      "Edi": 6146,
      "padding": 6147,
      "ln": 6148,
      "login": 6149,
      "0xc": 6150,
      "Launch": 6151,
      "i18n": 6152,
      "estim": 6153,
      "312": 6154,
      "links": 6155,
      "sla": 6156,
      "describe": 6157,
      "Chunk": 6158,
      "thread_start": 6159,
      "staging": 6160,
      "2C": 6161,
      "251": 6162,
      "grams": 6163,
      "download": 6164,
      "charact": 6165,
      "JSON": 6166,
      "DF": 6167,
      "NT": 6168,
      "hosts": 6169,
      "signal": 6170,
      "libtorch": 6171,
      "though": 6172,
      "due": 6173,
      "equal": 6174,
      "decode": 6175,
      "NULL": 6176,
      "mask": 6177,
      "Home": 6178,
      "PORT": 6179,
      "Invoker": 6180,
      "lim": 6181,
      "fallback": 6182,
      "sync": 6183,
      "rele": 6184,
      "Token": 6185,
      "FRO": 6186,
      "Decode": 6187,
      "4a": 6188,
      "KE": 6189,
      "ow": 6190,
      "TOOL": 6191,
      "short": 6192,
      "LibTorch": 6193,
      "convert": 6194,
      "xs": 6195,
      "apis": 6196,
      "screenshot": 6197,
      "785": 6198,
      "sandbox": 6199,
      "actual": 6200,
      "Menu": 6201,
      "GitHub": 6202,
      "()<": 6203,
      "Interface": 6204,
      "420": 6205,
      "SU": 6206,
      "decor": 6207,
      "));": 6208,
      "consumer": 6209,
      "################": 6210,
      "362": 6211,
      "symbol": 6212,
      "!!!!": 6213,
      "ctool": 6214,
      "Package": 6215,
      "Port": 6216,
      "libcu": 6217,
      "dl": 6218,
      "mv": 6219,
      "commands": 6220,
      "tables": 6221,
      "Waiting": 6222,
      "Sec": 6223,
      "ES_": 6224,
      "groups": 6225,
      "vocation": 6226,
      "instru": 6227,
      "260": 6228,
      "f1": 6229,
      "ja": 6230,
      "}&": 6231,
      "bla": 6232,
      "[:": 6233,
      "experiment": 6234,
      "ture": 6235,
      "EB": 6236,
      "fields": 6237,
      "198": 6238,
      "pick": 6239,
      "Async": 6240,
      "measure": 6241,
      "kerne": 6242,
      "prefix": 6243,
      "operation": 6244,
      "standard": 6245,
      "occurred": 6246,
      "MENT": 6247,
      "Ext": 6248,
      "rm": 6249,
      "ivation": 6250,
      "Next": 6251,
      "during": 6252,
      "Sche": 6253,
      "0x00007f9": 6254,
      "($": 6255,
      "Raw": 6256,
      "byte": 6257,
      "dout": 6258,
      "xxx": 6259,
      "reduce": 6260,
      "lected": 6261,
      "servlet": 6262,
      "igen": 6263,
      "integr": 6264,
      "PLATFORM_": 6265,
      "4b": 6266,
      "lower": 6267,
      "159": 6268,
      "ACE": 6269,
      "zero": 6270,
      "returns": 6271,
      "e636": 6272,
      "/<": 6273,
      "kombu": 6274,
      "fortun": 6275,
      "catch": 6276,
      "uid": 6277,
      "264": 6278,
      "unexpected": 6279,
      ">))": 6280,
      "UTF": 6281,
      "tries": 6282,
      "Te": 6283,
      "pypi": 6284,
      "296": 6285,
      "paste": 6286,
      "LAS": 6287,
      "atal": 6288,
      "209": 6289,
      "interpolate": 6290,
      "0700": 6291,
      "Parameter": 6292,
      "ENO": 6293,
      "Rout": 6294,
      "inlined": 6295,
      "Requ": 6296,
      "gradient": 6297,
      "updated": 6298,
      "Parser": 6299,
      "/#": 6300,
      "visit": 6301,
      "TING": 6302,
      "~~~~~~~~~~~~~~~~": 6303,
      "_kernel": 6304,
      "Attribute": 6305,
      "Fin": 6306,
      "124": 6307,
      "5e": 6308,
      "cursor": 6309,
      "Mon": 6310,
      "vant": 6311,
      "ught": 6312,
      "MAP": 6313,
      "CA": 6314,
      "variables": 6315,
      "_handle": 6316,
      "either": 6317,
      "ffffffff": 6318,
      "small": 6319,
      "x00": 6320,
      "deep": 6321,
      "tick": 6322,
      "Cy": 6323,
      "stream_": 6324,
      "8b": 6325,
      "PY": 6326,
      "ited": 6327,
      "getting": 6328,
      "secure": 6329,
      "sbin": 6330,
      "stdout": 6331,
      "Transaction": 6332,
      "];": 6333,
      "section": 6334,
      "142": 6335,
      "_PRE": 6336,
      "alpha": 6337,
      "Max": 6338,
      "_file": 6339,
      "Return": 6340,
      "ration": 6341,
      "179": 6342,
      "software": 6343,
      "187": 6344,
      "mut": 6345,
      "357": 6346,
      "├─": 6347,
      "270": 6348,
      "Manifest": 6349,
      "Linking": 6350,
      "170": 6351,
      "vscode": 6352,
      "original": 6353,
      "Thanks": 6354,
      "guide": 6355,
      "EL": 6356,
      "ulp": 6357,
      "matrix": 6358,
      "postgres": 6359,
      "messages_": 6360,
      "BrowserWindow": 6361,
      "CD": 6362,
      "0x00007ff": 6363,
      "Ready": 6364,
      "scale": 6365,
      "295": 6366,
      "└──": 6367,
      "=\"$": 6368,
      ">);": 6369,
      "jbr": 6370,
      "profile": 6371,
      "163": 6372,
      "emon": 6373,
      "explicit": 6374,
      "0x010": 6375,
      "were": 6376,
      "haswell": 6377,
      "pretty": 6378,
      "had": 6379,
      "edge": 6380,
      "wrap_tensorflow": 6381,
      "call_": 6382,
      "appro": 6383,
      "istics": 6384,
      "luc": 6385,
      "_pi": 6386,
      "Material": 6387,
      "ardet": 6388,
      "ichardet": 6389,
      "jbrichardet": 6390,
      "102": 6391,
      "vided": 6392,
      "questions": 6393,
      "detect": 6394,
      "RC": 6395,
      "OB": 6396,
      "dyn": 6397,
      "older": 6398,
      "panick": 6399,
      "_code": 6400,
      "LOY": 6401,
      "ENOENT": 6402,
      "ams": 6403,
      "169": 6404,
      "OURCES": 6405,
      "FAQ": 6406,
      "DEPLOY": 6407,
      "blas": 6408,
      "miniconda3": 6409,
      "fron": 6410,
      "0000gn": 6411,
      "Click": 6412,
      "elapsed": 6413,
      "hn": 6414,
      "is_": 6415,
      "EXEC": 6416,
      "chains": 6417,
      "Integer": 6418,
      "uninitialized": 6419,
      "`</": 6420,
      "cogn": 6421,
      "uting": 6422,
      "Store": 6423,
      "scripts": 6424,
      "WS": 6425,
      "chq_": 6426,
      "chq_messages_": 6427,
      "kg": 6428,
      "ascript": 6429,
      "199": 6430,
      "stackoverflow": 6431,
      "DEPLOYMENT_": 6432,
      "MAT": 6433,
      "246": 6434,
      "fortran": 6435,
      "lodash": 6436,
      "167": 6437,
      "/**": 6438,
      "total": 6439,
      "zen": 6440,
      "gote": 6441,
      "Pipe": 6442,
      "ina": 6443,
      "''": 6444,
      "Template": 6445,
      "BO": 6446,
      "vv": 6447,
      "importlib": 6448,
      "peg": 6449,
      "240": 6450,
      "uted": 6451,
      "mob": 6452,
      "lex": 6453,
      "roles": 6454,
      "linear": 6455,
      "ires": 6456,
      "334": 6457,
      "Anaconda": 6458,
      "**</": 6459,
      "Job": 6460,
      "webp": 6461,
      "Color": 6462,
      "\\.": 6463,
      "appears": 6464,
      "ral": 6465,
      "ani": 6466,
      "timestamp": 6467,
      "FlutterProjects": 6468,
      "monitor": 6469,
      "9e": 6470,
      "----------------------------------------------------------------": 6471,
      "-%": 6472,
      "rest": 6473,
      "atis": 6474,
      "assem": 6475,
      "iness": 6476,
      "diagnost": 6477,
      "never": 6478,
      "rows": 6479,
      "BE": 6480,
      "typeof": 6481,
      "accep": 6482,
      "\">--": 6483,
      "redirect": 6484,
      "product": 6485,
      "9a": 6486,
      "dent": 6487,
      "CONF": 6488,
      "SET": 6489,
      "allery": 6490,
      "ate_": 6491,
      "cached": 6492,
      "new_": 6493,
      "styles": 6494,
      "widget": 6495,
      "LC_": 6496,
      "0xc8200": 6497,
      "████████": 6498,
      "ACT": 6499,
      "8c": 6500,
      "PASS": 6501,
      "their": 6502,
      "generated_": 6503,
      "roy": 6504,
      "conn": 6505,
      "provided": 6506,
      "376": 6507,
      "━━": 6508,
      "MT": 6509,
      "_configtest": 6510,
      "submitting": 6511,
      "respon": 6512,
      "Definition": 6513,
      "applic": 6514,
      "ected": 6515,
      "zz": 6516,
      "quanti": 6517,
      "189": 6518,
      "_mode_": 6519,
      "typing": 6520,
      "itive": 6521,
      "185": 6522,
      "600": 6523,
      "logger": 6524,
      "sive": 6525,
      "275": 6526,
      "versal": 6527,
      "Ag": 6528,
      "really": 6529,
      "package_": 6530,
      "insert": 6531,
      "ignored": 6532,
      "XcodeDefault": 6533,
      "encoding": 6534,
      "duration": 6535,
      "fon": 6536,
      "or_": 6537,
      "JuliaLang": 6538,
      "why": 6539,
      "transformers": 6540,
      "indices": 6541,
      "applicable": 6542,
      "Adapter": 6543,
      "_dynamic_": 6544,
      "190": 6545,
      "specify": 6546,
      "duplicated": 6547,
      "Assertion": 6548,
      "Memory": 6549,
      "Icon": 6550,
      "pm": 6551,
      "234": 6552,
      "kee": 6553,
      "Sty": 6554,
      "Shared": 6555,
      "les": 6556,
      "197": 6557,
      "Setup": 6558,
      "SDKs": 6559,
      "gf": 6560,
      "Fast": 6561,
      "dialect": 6562,
      "successfully": 6563,
      "jquery": 6564,
      "except": 6565,
      "Chain": 6566,
      "evalu": 6567,
      "Graph": 6568,
      "Sph": 6569,
      "0x5": 6570,
      "align": 6571,
      "matic": 6572,
      "afari": 6573,
      "grid": 6574,
      "poly": 6575,
      "JAVA_": 6576,
      "hostname": 6577,
      "take": 6578,
      "within": 6579,
      "asm": 6580,
      "bound": 6581,
      "0001": 6582,
      "statistics": 6583,
      "pw": 6584,
      "strong_mode_": 6585,
      "strong_mode_implicit": 6586,
      "unity": 6587,
      "7f9f": 6588,
      "operator_test": 6589,
      "VariableManager": 6590,
      "Block": 6591,
      "snap": 6592,
      "866": 6593,
      "Queue": 6594,
      "MethodAccessorImpl": 6595,
      "cpuinfo": 6596,
      "inspect": 6597,
      "7B": 6598,
      "ship": 6599,
      "WithMerge": 6600,
      "gce": 6601,
      "unwind": 6602,
      "196": 6603,
      "LANG": 6604,
      "cls": 6605,
      "_ops": 6606,
      "dynload": 6607,
      "Dec": 6608,
      "dr": 6609,
      "initial": 6610,
      "0x7f01": 6611,
      "FB": 6612,
      "useful": 6613,
      "ENABLE_": 6614,
      "counter": 6615,
      "Toolchains": 6616,
      "perf_": 6617,
      "\"<": 6618,
      "Emit": 6619,
      "iquote": 6620,
      "expan": 6621,
      "xctool": 6622,
      "4e": 6623,
      "libwebp": 6624,
      "Look": 6625,
      "mbic": 6626,
      "strong_mode_implicit_dynamic_": 6627,
      "domain": 6628,
      "xctoolchain": 6629,
      "v7": 6630,
      "Byte": 6631,
      ";{": 6632,
      "236": 6633,
      "suite": 6634,
      "cut": 6635,
      "v3": 6636,
      "license": 6637,
      "reach": 6638,
      "virtual": 6639,
      "alembic": 6640,
      "_to_": 6641,
      "caught": 6642,
      "closed": 6643,
      "qp": 6644,
      "AbstractBeanFactory": 6645,
      "switch": 6646,
      "Dispatcher": 6647,
      "Iterator": 6648,
      "urned": 6649,
      "tial": 6650,
      "int8": 6651,
      "name__": 6652,
      "omi": 6653,
      "CONFIG": 6654,
      "Stor": 6655,
      "Decoder": 6656,
      "141": 6657,
      "wheel": 6658,
      "\">==</": 6659,
      "225": 6660,
      "Try": 6661,
      "large": 6662,
      "az": 6663,
      "scroll": 6664,
      "transaction": 6665,
      "serv": 6666,
      "uff": 6667,
      "________________________________": 6668,
      "0800": 6669,
      "DEFAULT_": 6670,
      "ClassLoader": 6671,
      "133": 6672,
      "ified": 6673,
      "Feature": 6674,
      "developer": 6675,
      "Skipping": 6676,
      "Additional": 6677,
      "looks": 6678,
      "bad": 6679,
      "jsx": 6680,
      "356": 6681,
      "PS": 6682,
      "Rou": 6683,
      "githubassets": 6684,
      "262": 6685,
      "_Custom": 6686,
      "8d": 6687,
      "repe": 6688,
      "separ": 6689,
      "LER": 6690,
      "RUN": 6691,
      "Meta": 6692,
      "_CustomZone": 6693,
      "/?": 6694,
      "_context": 6695,
      "220": 6696,
      "fiddle": 6697,
      "rant": 6698,
      "locale": 6699,
      "common_runtime": 6700,
      "condition": 6701,
      "384": 6702,
      "Arch": 6703,
      "lice": 6704,
      "allel": 6705,
      "7D": 6706,
      "kB": 6707,
      "gemm": 6708,
      "404": 6709,
      "FAILED": 6710,
      "egg": 6711,
      "inc": 6712,
      "174": 6713,
      "����": 6714,
      "'\\": 6715,
      "155": 6716,
      "ilation": 6717,
      "refresh": 6718,
      "attemp": 6719,
      "FIX": 6720,
      "DT": 6721,
      "exclude": 6722,
      "camp": 6723,
      "3e": 6724,
      "retry": 6725,
      "ented": 6726,
      "SSL": 6727,
      ";}": 6728,
      "250": 6729,
      "Common": 6730,
      "188": 6731,
      "Ign": 6732,
      "FS": 6733,
      "LOW": 6734,
      "HOME": 6735,
      "trigger": 6736,
      "9d": 6737,
      "selector": 6738,
      "RESOURCES": 6739,
      "inputs": 6740,
      "world": 6741,
      "ago": 6742,
      "relation": 6743,
      "writ": 6744,
      "------": 6745,
      "VAL": 6746,
      "replic": 6747,
      "adcast": 6748,
      "warnings": 6749,
      "nd": 6750,
      "counts": 6751,
      "gress": 6752,
      "nose": 6753,
      "company": 6754,
      "mise": 6755,
      "suggest": 6756,
      "Failure": 6757,
      "crypto": 6758,
      "exact": 6759,
      "strings": 6760,
      "curl": 6761,
      "RIBU": 6762,
      "dump": 6763,
      "Remo": 6764,
      "237": 6765,
      "9b": 6766,
      "PropertyChanged": 6767,
      "thi": 6768,
      "Deta": 6769,
      "liter": 6770,
      "edit": 6771,
      "\".": 6772,
      "tend": 6773,
      "fmt": 6774,
      "boss": 6775,
      "special": 6776,
      "mobile": 6777,
      ">=<": 6778,
      "Search": 6779,
      "Require": 6780,
      "SP": 6781,
      "discu": 6782,
      ";-": 6783,
      "113": 6784,
      "358": 6785,
      "defaults": 6786,
      "optimized": 6787,
      "Symbo": 6788,
      "Cloud": 6789,
      "TEMP": 6790,
      "CB": 6791,
      "xla": 6792,
      "103": 6793,
      "\":{\"": 6794,
      "PACK": 6795,
      "wi": 6796,
      "who": 6797,
      "224": 6798,
      "259": 6799,
      "227": 6800,
      "e67": 6801,
      "jpg": 6802,
      "good": 6803,
      "Sphere": 6804,
      "day": 6805,
      "gist": 6806,
      "178": 6807,
      "hooks": 6808,
      "miniconda2": 6809,
      "declare": 6810,
      "REC": 6811,
      "zand": 6812,
      "=\"[": 6813,
      "having": 6814,
      "LIC": 6815,
      "gorith": 6816,
      "fft": 6817,
      "0x7fa": 6818,
      "ifier": 6819,
      "toolchain": 6820,
      "flag": 6821,
      "iate": 6822,
      "unds": 6823,
      "relevant": 6824,
      "fonts": 6825,
      "Ang": 6826,
      "Tran": 6827,
      "ch_dep": 6828,
      "say": 6829,
      "ch_dephelp": 6830,
      "inline": 6831,
      "nice": 6832,
      "lobal": 6833,
      "requires": 6834,
      "Developers": 6835,
      "acy": 6836,
      ":%": 6837,
      "pyplot": 6838,
      "Fort": 6839,
      "__1": 6840,
      "macOS": 6841,
      "Kubernetes": 6842,
      "_root": 6843,
      "oid": 6844,
      "dat": 6845,
      "258": 6846,
      "ious": 6847,
      "assemble": 6848,
      "type_": 6849,
      "OUT": 6850,
      "uk": 6851,
      "327": 6852,
      "PLAY": 6853,
      "5d": 6854,
      "Compiling": 6855,
      "(-": 6856,
      "_thread": 6857,
      "_3": 6858,
      "buted": 6859,
      "those": 6860,
      "yi": 6861,
      "inject": 6862,
      "cuda_S": 6863,
      "Helper": 6864,
      "RESUL": 6865,
      "disk": 6866,
      "THRE": 6867,
      "mutable": 6868,
      "_FILE_": 6869,
      "337": 6870,
      "_state": 6871,
      "a2f": 6872,
      "licy": 6873,
      "promise": 6874,
      "plus": 6875,
      "real": 6876,
      "Constructor": 6877,
      "extract": 6878,
      "challenges": 6879,
      "c27": 6880,
      "trin": 6881,
      "dison": 6882,
      "undefined_": 6883,
      ">]:": 6884,
      "0x55": 6885,
      "org_tensorflow": 6886,
      "Settings": 6887,
      "IVE": 6888,
      "autograd": 6889,
      "ane": 6890,
      "orted": 6891,
      "doing": 6892,
      "4d": 6893,
      "Bit": 6894,
      "jor": 6895,
      "205": 6896,
      "sleep": 6897,
      "RenderObjectElement": 6898,
      "great": 6899,
      "Fortran": 6900,
      "training": 6901,
      "offset": 6902,
      "used_": 6903,
      "0x00007ffff": 6904,
      "hot": 6905,
      "cases": 6906,
      "131": 6907,
      "outputs": 6908,
      "Metadata": 6909,
      "0b": 6910,
      "means": 6911,
      "compiled": 6912,
      "facebook": 6913,
      "skip": 6914,
      "Your": 6915,
      "tower": 6916,
      "navig": 6917,
      "FL": 6918,
      "306": 6919,
      "SC": 6920,
      "186": 6921,
      "_client": 6922,
      "2f4": 6923,
      "_US": 6924,
      "002": 6925,
      "DOM": 6926,
      "Iso": 6927,
      "contin": 6928,
      "267": 6929,
      "_dir": 6930,
      "inher": 6931,
      "Norm": 6932,
      ">[": 6933,
      "ump": 6934,
      "537": 6935,
      "lapack": 6936,
      "0x7f01a6": 6937,
      "_test_": 6938,
      "cross": 6939,
      "{},": 6940,
      "openssh": 6941,
      "219": 6942,
      "3c": 6943,
      "_device": 6944,
      ";:{&": 6945,
      "_N": 6946,
      "leton": 6947,
      "2f6": 6948,
      "Extra": 6949,
      "Types": 6950,
      "Pass": 6951,
      "protoc": 6952,
      "========================": 6953,
      "setuptools": 6954,
      "workbench": 6955,
      "notice": 6956,
      "duplicates": 6957,
      "e1": 6958,
      "SSE": 6959,
      "\"\",": 6960,
      "sca": 6961,
      "POST": 6962,
      "238": 6963,
      "fied": 6964,
      "COMPIL": 6965,
      "Win": 6966,
      "175": 6967,
      "jsfiddle": 6968,
      "Storage": 6969,
      "green": 6970,
      "Documentation": 6971,
      "Directory": 6972,
      "204": 6973,
      "amqp": 6974,
      "Resolver": 6975,
      "Commit": 6976,
      "Tuple": 6977,
      "iB": 6978,
      "207": 6979,
      "STR": 6980,
      "lina": 6981,
      "Ano": 6982,
      "Edison": 6983,
      "ters": 6984,
      "caffe2_gpu": 6985,
      "Socket": 6986,
      "better": 6987,
      "eric": 6988,
      "itecture": 6989,
      "ories": 6990,
      ");\\": 6991,
      "declaration": 6992,
      "Another": 6993,
      "dial": 6994,
      "selection": 6995,
      "eg": 6996,
      "google_": 6997,
      "mux": 6998,
      "Execution": 6999,
      "annotations": 7000,
      "much": 7001,
      "Mix": 7002,
      "restart": 7003,
      "'@": 7004,
      "compiling": 7005,
      "twbs": 7006,
      "objc": 7007,
      "DEPLOYMENT_TARGET": 7008,
      "gur": 7009,
      "pytest": 7010,
      "Boolean": 7011,
      "confu": 7012,
      "cn": 7013,
      "poch": 7014,
      "interval": 7015,
      "expand": 7016,
      "0x0000000000000000": 7017,
      "ay": 7018,
      "pad": 7019,
      "gramm": 7020,
      "anging": 7021,
      "bor": 7022,
      "evelina": 7023,
      "aws": 7024,
      "traceback": 7025,
      "ension": 7026,
      "201": 7027,
      "daemon": 7028,
      "quad": 7029,
      "End": 7030,
      "(#": 7031,
      "248": 7032,
      "366": 7033,
      "MODE": 7034,
      "migration": 7035,
      "7ff": 7036,
      "Sw": 7037,
      "[\"": 7038,
      "Simple": 7039,
      "blue": 7040,
      "cv2": 7041,
      "ball": 7042,
      "arrays": 7043,
      "series": 7044,
      "16785": 7045,
      "STAND": 7046,
      "662": 7047,
      "STANDAR": 7048,
      "8a": 7049,
      "4747": 7050,
      "consider": 7051,
      "226": 7052,
      "returned": 7053,
      "646": 7054,
      "Pers": 7055,
      "codecamp": 7056,
      "280": 7057,
      "Nio": 7058,
      "3_05E": 7059,
      "illa": 7060,
      "Received": 7061,
      "363": 7062,
      "freecodecamp": 7063,
      "leense": 7064,
      "gurleense": 7065,
      "gurleensethi": 7066,
      "ffic": 7067,
      "1024": 7068,
      "277": 7069,
      "%)": 7070,
      "buildbot": 7071,
      "\"}": 7072,
      "num_": 7073,
      "CELER": 7074,
      "python_": 7075,
      "EXP": 7076,
      "aga": 7077,
      ":'": 7078,
      "T23": 7079,
      "pyx": 7080,
      "susp": 7081,
      "211": 7082,
      "]&": 7083,
      "ib": 7084,
      "slot": 7085,
      "Checking": 7086,
      "_tra": 7087,
      "incompatible": 7088,
      "signature": 7089,
      "CONTRIBU": 7090,
      "prote": 7091,
      "probably": 7092,
      "ind_": 7093,
      "379": 7094,
      "Information": 7095,
      "PostProcessor": 7096,
      "CONTRIBUTING": 7097,
      "*/</": 7098,
      "recogn": 7099,
      "774": 7100,
      "PLIST": 7101,
      "Count": 7102,
      "derr": 7103,
      "21c1": 7104,
      "7b": 7105,
      "Car": 7106,
      "ptr": 7107,
      "tuple": 7108,
      "_kind_": 7109,
      "fe3": 7110,
      "executing": 7111,
      "c000": 7112,
      "ged": 7113,
      "vec": 7114,
      "244": 7115,
      "Playwright": 7116,
      ".*": 7117,
      "Isolate": 7118,
      "310": 7119,
      "Case": 7120,
      "jboss": 7121,
      "239": 7122,
      "99988": 7123,
      "Vect": 7124,
      "ander": 7125,
      "instanti": 7126,
      "targets": 7127,
      "clients": 7128,
      "shows": 7129,
      "arrow": 7130,
      "readiness": 7131,
      "placehold_placehold_placehold_placehold_": 7132,
      "ability": 7133,
      "17_a": 7134,
      "Unary": 7135,
      "architecture": 7136,
      "ImportError": 7137,
      "opencv2": 7138,
      "bian": 7139,
      "CODE_S": 7140,
      "Then": 7141,
      "DED_": 7142,
      "Authentication": 7143,
      "things": 7144,
      "compileDebug": 7145,
      "EP": 7146,
      "runs": 7147,
      "_ZN6middle2ty13": 7148,
      "va": 7149,
      "Dete": 7150,
      "scal": 7151,
      "MAC": 7152,
      "type_kind_": 7153,
      "268": 7154,
      "ext17_a": 7155,
      "92221c1": 7156,
      "bff92221c1": 7157,
      "99988bff92221c1": 7158,
      "_ZN6middle2ty13type_kind_": 7159,
      "ext17_a99988bff92221c1": 7160,
      "_ZN6middle2ty13type_kind_ext17_a99988bff92221c1": 7161,
      "_ZN6middle2ty13type_kind_ext17_a99988bff92221c13_05E": 7162,
      "Pos": 7163,
      "libprotoc": 7164,
      "shard": 7165,
      "5a": 7166,
      "tak": 7167,
      "swift": 7168,
      "QU": 7169,
      "junit": 7170,
      "INT": 7171,
      "AssertionError": 7172,
      "internet": 7173,
      "7fa11": 7174,
      "────────": 7175,
      ">])": 7176,
      "JDK": 7177,
      "_launcher": 7178,
      "zing": 7179,
      "098": 7180,
      "nothing": 7181,
      "rules": 7182,
      "sph": 7183,
      "interpre": 7184,
      ")))": 7185,
      "NO_": 7186,
      "Oct": 7187,
      ">([<": 7188,
      "passed": 7189,
      "Sum": 7190,
      "ndebug3": 7191,
      "Timer": 7192,
      "Emitter": 7193,
      "manage": 7194,
      "catalina": 7195,
      "NV": 7196,
      "reachable": 7197,
      "Sparse": 7198,
      "lities": 7199,
      "nable": 7200,
      "descriptor": 7201,
      ".\"><": 7202,
      "_generated_": 7203,
      "panic": 7204,
      "Vector": 7205,
      "315": 7206,
      "Cate": 7207,
      "javascript": 7208,
      "359": 7209,
      "Batch": 7210,
      "_bootstrap": 7211,
      "extras": 7212,
      "ze_": 7213,
      "════════════════════════════════": 7214,
      "psy": 7215,
      "Currently": 7216,
      "unsigned": 7217,
      "132": 7218,
      "266": 7219,
      "inx": 7220,
      "stderr": 7221,
      "257": 7222,
      "Hook": 7223,
      "float32": 7224,
      "Ptr": 7225,
      "235": 7226,
      "Scope": 7227,
      "urity": 7228,
      "Reader": 7229,
      "adow": 7230,
      "143": 7231,
      "ives": 7232,
      "idx": 7233,
      "structure": 7234,
      "4c": 7235,
      "yy": 7236,
      "strator": 7237,
      "camo": 7238,
      "307": 7239,
      "6874747": 7240,
      "ost": 7241,
      "del": 7242,
      "121": 7243,
      "GT": 7244,
      "_Py": 7245,
      "cluding": 7246,
      "THTensor": 7247,
      "yet": 7248,
      "LECT": 7249,
      "LLVM": 7250,
      "keeper": 7251,
      "psyco": 7252,
      "DAT": 7253,
      "rename": 7254,
      "122": 7255,
      "9c": 7256,
      "EE": 7257,
      "GB": 7258,
      "Parent": 7259,
      "228": 7260,
      "4830": 7261,
      "psycopg": 7262,
      "CXX_": 7263,
      "supports": 7264,
      "ShardingSphere": 7265,
      "written": 7266,
      "cr": 7267,
      "ura": 7268,
      "First": 7269,
      "adb": 7270,
      "benchmark": 7271,
      "_process": 7272,
      "MySQL": 7273,
      "SER": 7274,
      "PASSED": 7275,
      "************************************************": 7276,
      "efortun": 7277,
      "mented": 7278,
      "termination": 7279,
      "Eval_": 7280,
      "Screenshot": 7281,
      "Mixin": 7282,
      "efortuna": 7283,
      "0a": 7284,
      "prior": 7285,
      "ChannelHandler": 7286,
      "VC": 7287,
      "]\\": 7288,
      "annels": 7289,
      "Security": 7290,
      "_tool": 7291,
      "31T23": 7292,
      "8f": 7293,
      "Scheduler": 7294,
      "nk": 7295,
      "legal": 7296,
      "TS2300": 7297,
      "owner": 7298,
      "seem": 7299,
      "exchange": 7300,
      "waiting": 7301,
      "tics": 7302,
      "Uni": 7303,
      "okeeper": 7304,
      "rozen": 7305,
      "());": 7306,
      "ustomi": 7307,
      "AAAA": 7308,
      "_BIT": 7309,
      "Leng": 7310,
      "ining": 7311,
      "278": 7312,
      "_with_": 7313,
      "d000": 7314,
      "173": 7315,
      "complex": 7316,
      "DEVICE": 7317,
      "Eval_Eval": 7318,
      "216": 7319,
      "uter": 7320,
      "Length": 7321,
      "DC": 7322,
      "gulp": 7323,
      "_pch_dephelp": 7324,
      "gcr": 7325,
      "Range": 7326,
      "sto": 7327,
      "1586": 7328,
      "_start": 7329,
      "_get_": 7330,
      "universal": 7331,
      "Cython": 7332,
      "Jni": 7333,
      "exc": 7334,
      "handling": 7335,
      "NG": 7336,
      "RU": 7337,
      "\">!</": 7338,
      "0f": 7339,
      "_T": 7340,
      "Airflow": 7341,
      "_input": 7342,
      "ka": 7343,
      "=\"{": 7344,
      "tributes": 7345,
      "MOD": 7346,
      "SIB": 7347,
      "[{": 7348,
      "apply_": 7349,
      "Kara": 7350,
      "Invalid": 7351,
      "_op_test": 7352,
      "Dependencies": 7353,
      "AIL": 7354,
      "Media": 7355,
      "porter": 7356,
      "ATION_": 7357,
      "_install": 7358,
      "ately": 7359,
      "cessary": 7360,
      "Router": 7361,
      "ipython": 7362,
      "ceptor": 7363,
      "declarations": 7364,
      "solve": 7365,
      "ants": 7366,
      "Ins": 7367,
      "').": 7368,
      "elk": 7369,
      "broker": 7370,
      "artifacts": 7371,
      "_image": 7372,
      "codec": 7373,
      "Firefox": 7374,
      "CONFIGUR": 7375,
      "Shaders": 7376,
      "ear": 7377,
      "centos": 7378,
      "11e8": 7379,
      "specifier": 7380,
      "symbols": 7381,
      "I05": 7382,
      "ah": 7383,
      "ision": 7384,
      "ventory": 7385,
      "until": 7386,
      "effect": 7387,
      "Initiali": 7388,
      "_l": 7389,
      "ode": 7390,
      "lead": 7391,
      "Copying": 7392,
      "_r": 7393,
      "plist": 7394,
      "lazy": 7395,
      "margin": 7396,
      "Match": 7397,
      "reports": 7398,
      "Route": 7399,
      "Vide": 7400,
      "rup": 7401,
      "Boot": 7402,
      "iPhoneOS": 7403,
      "makes": 7404,
      "jon": 7405,
      "195": 7406,
      "380": 7407,
      ";!": 7408,
      "war": 7409,
      "@<": 7410,
      "as_": 7411,
      "character": 7412,
      "f3": 7413,
      "tre": 7414,
      "_gallery": 7415,
      "ChildRenderObjectElement": 7416,
      "OpenJDK": 7417,
      "c9b0": 7418,
      "appl": 7419,
      "Unused": 7420,
      "svg": 7421,
      "browse": 7422,
      "217": 7423,
      "UAL": 7424,
      "mss": 7425,
      "254": 7426,
      "MIN": 7427,
      "pyc": 7428,
      "480": 7429,
      "davis": 7430,
      "BeanPostProcessor": 7431,
      "Video": 7432,
      "hap": 7433,
      "...<": 7434,
      "didn": 7435,
      "OS_": 7436,
      "sqlite": 7437,
      "\",<": 7438,
      "396": 7439,
      "mapper": 7440,
      "_to": 7441,
      "mr": 7442,
      "External": 7443,
      "_picker": 7444,
      "mapping": 7445,
      "265": 7446,
      "lsp": 7447,
      "dataset": 7448,
      "PROJECT_": 7449,
      "DES": 7450,
      "jdk": 7451,
      "IS": 7452,
      "Volume": 7453,
      "314": 7454,
      "ba62": 7455,
      "whl": 7456,
      "directly": 7457,
      "connected": 7458,
      "wrap_tensorflow_internal": 7459,
      "Safari": 7460,
      "concat": 7461,
      "tf_": 7462,
      "FC": 7463,
      "tsc": 7464,
      "..\\": 7465,
      "640": 7466,
      "build_a": 7467,
      "=-": 7468,
      "LD_": 7469,
      "_task": 7470,
      "_archive": 7471,
      "Double": 7472,
      "Also": 7473,
      "900": 7474,
      "_for": 7475,
      "cec9b0": 7476,
      "ecc27": 7477,
      "e61586": 7478,
      "denoland": 7479,
      "2f4fe3": 7480,
      "4830e61586": 7481,
      "ba62cec9b0": 7482,
      "build_aba62cec9b0": 7483,
      "ecc274830e61586": 7484,
      "build_aba62cec9b0ecc274830e61586": 7485,
      "build_aba62cec9b0ecc274830e615862f4fe3": 7486,
      "336": 7487,
      "installable": 7488,
      "Matplotlib": 7489,
      "Results": 7490,
      "tribeNode": 7491,
      "0x2f": 7492,
      "ometry": 7493,
      "WR": 7494,
      ")),": 7495,
      "308": 7496,
      "blog": 7497,
      ":*.": 7498,
      "atlas": 7499,
      "_pass": 7500,
      "DAG": 7501,
      "additional": 7502,
      "few": 7503,
      "LOCAL": 7504,
      "\"@": 7505,
      "workers": 7506,
      "kara": 7507,
      "brew": 7508,
      "Babel": 7509,
      "cir": 7510,
      "gorithm": 7511,
      "_and": 7512,
      "delt": 7513,
      "WithNew": 7514,
      "inj": 7515,
      "181": 7516,
      "writer": 7517,
      "listener": 7518,
      "_patch": 7519,
      "resolveWithNew": 7520,
      "resolveWithNewModule": 7521,
      "_user": 7522,
      "tell": 7523,
      "Header": 7524,
      "Show": 7525,
      "Values": 7526,
      "_util": 7527,
      "STRIP": 7528,
      "extend": 7529,
      "HTMLDocument": 7530,
      "6a": 7531,
      "Archive": 7532,
      "Remote": 7533,
      "Angular": 7534,
      "AE": 7535,
      "Each": 7536,
      "Series": 7537,
      "weights": 7538,
      "slave": 7539,
      "$$": 7540,
      "10_": 7541,
      "Bro": 7542,
      "redu": 7543,
      "676": 7544,
      "focus": 7545,
      "Linear": 7546,
      "pattern": 7547,
      "DN": 7548,
      "messages": 7549,
      "maksim": 7550,
      "(...": 7551,
      "resolved": 7552,
      "FE": 7553,
      "glob": 7554,
      "against": 7555,
      "0ms": 7556,
      "HEADERMAP": 7557,
      "tribe_test": 7558,
      "kara_app": 7559,
      "IVE_": 7560,
      "quick": 7561,
      "eslint": 7562,
      "white": 7563,
      "LAGS": 7564,
      "sphinx": 7565,
      "made": 7566,
      "spawn": 7567,
      "WN": 7568,
      "_view": 7569,
      "`,": 7570,
      "customi": 7571,
      "229": 7572,
      "288": 7573,
      "photo": 7574,
      "(::": 7575,
      "Mob": 7576,
      "gue": 7577,
      "sg": 7578,
      "Imf": 7579,
      "placeholder": 7580,
      "^~~~~~~~~": 7581,
      "ticket": 7582,
      "toolcache": 7583,
      "hostedtoolcache": 7584,
      "replica": 7585,
      "Pod": 7586,
      "expl": 7587,
      "es2015": 7588,
      "Inject": 7589,
      "a2f2f": 7590,
      "x2": 7591,
      "Ax": 7592,
      "unreachable": 7593,
      "}}&": 7594,
      "incre": 7595,
      "performance": 7596,
      "ForDebug": 7597,
      ".(*": 7598,
      "GO": 7599,
      "'\"'\"": 7600,
      "299": 7601,
      "ONE": 7602,
      "Possible": 7603,
      "212": 7604,
      "Sign": 7605,
      "):<": 7606,
      "account": 7607,
      "exceptions": 7608,
      "MacOS": 7609,
      "ird": 7610,
      "Distri": 7611,
      "jobs": 7612,
      "ctx": 7613,
      "Transform": 7614,
      "CODE_SIGN": 7615,
      "Hash": 7616,
      "IM": 7617,
      "Heap": 7618,
      "DependencyPropertyChanged": 7619,
      "ACTUAL": 7620,
      "itself": 7621,
      "Compos": 7622,
      "Grid": 7623,
      "maksimrv": 7624,
      "verify": 7625,
      "18362": 7626,
      "writing": 7627,
      "psycopg2": 7628,
      "ases": 7629,
      "traverse": 7630,
      "AGE": 7631,
      "ISS": 7632,
      "Pa": 7633,
      "s_test": 7634,
      "Starting": 7635,
      "Recor": 7636,
      "fg": 7637,
      "Merger": 7638,
      "IES": 7639,
      "Stand": 7640,
      "800": 7641,
      "flat": 7642,
      "364": 7643,
      "alys": 7644,
      "datasets": 7645,
      "println": 7646,
      "multip": 7647,
      "f6d": 7648,
      "Backend": 7649,
      "Are": 7650,
      "colors": 7651,
      "297": 7652,
      "11e7": 7653,
      "_FRAMEWORK": 7654,
      "zygote": 7655,
      "expansion": 7656,
      "fatal": 7657,
      "Decor": 7658,
      "foli": 7659,
      "Sep": 7660,
      "resize": 7661,
      ";'&": 7662,
      "rotask": 7663,
      "compilation": 7664,
      "Mobile": 7665,
      "icrotask": 7666,
      "lif": 7667,
      "thrust": 7668,
      "nu": 7669,
      "etch": 7670,
      "sleef": 7671,
      "changing": 7672,
      "mixed_": 7673,
      "integration": 7674,
      "trait": 7675,
      "T00": 7676,
      "reader": 7677,
      "_NAME": 7678,
      "needed": 7679,
      "iour": 7680,
      "EventArgs": 7681,
      "bottom": 7682,
      "litt": 7683,
      "py2": 7684,
      "tif": 7685,
      "haviour": 7686,
      "Pipeline": 7687,
      "google_containers": 7688,
      "_count": 7689,
      "causes": 7690,
      "unused_": 7691,
      "not_": 7692,
      "ific": 7693,
      "liver": 7694,
      "GEN": 7695,
      "298": 7696,
      "backward": 7697,
      "distributions": 7698,
      "won": 7699,
      "ec2": 7700,
      "6b": 7701,
      "dst": 7702,
      "tle": 7703,
      "chxt": 7704,
      "Sig": 7705,
      "feed": 7706,
      "Cluster": 7707,
      "alysis": 7708,
      "_from_": 7709,
      "history": 7710,
      "hd": 7711,
      "Enter": 7712,
      "214": 7713,
      "zilla": 7714,
      "forum": 7715,
      "Strate": 7716,
      "Refresh": 7717,
      "409": 7718,
      "_api": 7719,
      "tcx": 7720,
      "230": 7721,
      "360": 7722,
      "CLANG_WARN_": 7723,
      "little": 7724,
      "Wall": 7725,
      "bers": 7726,
      "rst": 7727,
      "hello_": 7728,
      ">-<": 7729,
      "ople": 7730,
      "cell": 7731,
      "axios": 7732,
      "processor": 7733,
      "objective": 7734,
      "cuDNN": 7735,
      "stdlib": 7736,
      "PUB": 7737,
      "(!": 7738,
      "frozen": 7739,
      "ENV": 7740,
      "libsystem_kernel": 7741,
      "suspension": 7742,
      "Connected": 7743,
      "_PRODU": 7744,
      "tk": 7745,
      "alled": 7746,
      "Caused": 7747,
      "Compat": 7748,
      "encode": 7749,
      "utorial": 7750,
      "transp": 7751,
      "firebase_": 7752,
      "5000": 7753,
      "JC_": 7754,
      "Pkg": 7755,
      "capture": 7756,
      "348": 7757,
      "FilterChain": 7758,
      "reporting": 7759,
      "ID_": 7760,
      "functionality": 7761,
      "Last": 7762,
      "e00": 7763,
      "yarn": 7764,
      ");\"><": 7765,
      "Optional": 7766,
      "Operator": 7767,
      "LINK": 7768,
      "rg": 7769,
      "cook": 7770,
      "addr": 7771,
      "longer": 7772,
      "yourcompany": 7773,
      "RIV": 7774,
      "'--": 7775,
      "gfortran": 7776,
      "p_": 7777,
      "preview": 7778,
      "Uncaught": 7779,
      "DexArchive": 7780,
      "finished": 7781,
      "frontend": 7782,
      "286": 7783,
      "atter": 7784,
      "predi": 7785,
      "Database": 7786,
      "whether": 7787,
      "receive": 7788,
      "5b": 7789,
      "inventory": 7790,
      "commented": 7791,
      "tokenizer": 7792,
      "Mark": 7793,
      "distributed": 7794,
      "lem": 7795,
      "contents": 7796,
      "11e4": 7797,
      "Transport": 7798,
      "285": 7799,
      "394": 7800,
      "ia": 7801,
      "plain": 7802,
      "249": 7803,
      "myapp": 7804,
      "Packages": 7805,
      "experimental": 7806,
      "cali": 7807,
      "2fplugin": 7808,
      "allowed": 7809,
      "rwx": 7810,
      "understand": 7811,
      "\\\":": 7812,
      "458": 7813,
      "rust_": 7814,
      "Fn": 7815,
      "](": 7816,
      "behaviour": 7817,
      "_FILE": 7818,
      "Rand": 7819,
      "During": 7820,
      "Related": 7821,
      "sudo": 7822,
      "iterator": 7823,
      "NVCC": 7824,
      "'%": 7825,
      "284": 7826,
      "Strategy": 7827,
      "_FOR": 7828,
      "Label": 7829,
      "moting": 7830,
      "C4251": 7831,
      "shift": 7832,
      "EventEmitter": 7833,
      "7e": 7834,
      "Fetch": 7835,
      "Invoke": 7836,
      "KEY": 7837,
      "fl": 7838,
      "sity": 7839,
      "Runnable": 7840,
      "375": 7841,
      "Handle": 7842,
      "middleware": 7843,
      "Cellar": 7844,
      "ch_": 7845,
      "0xb": 7846,
      "matching": 7847,
      "294": 7848,
      "_list": 7849,
      "Point": 7850,
      "_value": 7851,
      "csv": 7852,
      "starting": 7853,
      "normalize": 7854,
      "Off": 7855,
      "Ru": 7856,
      "hw": 7857,
      "171": 7858,
      "_pthread_": 7859,
      "PUT_": 7860,
      "347": 7861,
      ">).<": 7862,
      "CoreFoundation": 7863,
      "avx512": 7864,
      "Standard": 7865,
      "folio": 7866,
      "\">**</": 7867,
      "Invocation": 7868,
      "151": 7869,
      "Sc": 7870,
      "=\"//": 7871,
      "abstract": 7872,
      "publish": 7873,
      "Agent": 7874,
      "gl": 7875,
      "CP": 7876,
      "274": 7877,
      "ndebug2": 7878,
      "8e": 7879,
      "cudnn": 7880,
      "opencv_perf_": 7881,
      "artist": 7882,
      "COR": 7883,
      "hance": 7884,
      "AbstractApplicationContext": 7885,
      "Address": 7886,
      "flush": 7887,
      "Anaconda3": 7888,
      "Global": 7889,
      "Uti": 7890,
      "387": 7891,
      "_range": 7892,
      "i386": 7893,
      "alf": 7894,
      "apt": 7895,
      "346": 7896,
      "377": 7897,
      "397": 7898,
      "everything": 7899,
      "Gest": 7900,
      "INTERN": 7901,
      "sist": 7902,
      ">]<": 7903,
      "seki": 7904,
      "flutter_gallery": 7905,
      "\">\"/": 7906,
      "Network": 7907,
      "Stateful": 7908,
      "0_152": 7909,
      "estimator": 7910,
      "DS": 7911,
      "UB": 7912,
      "xture": 7913,
      "PyTorch": 7914,
      "implemented": 7915,
      "NotFound": 7916,
      "'))": 7917,
      "Summary": 7918,
      "paths": 7919,
      "shared_": 7920,
      "fitpack": 7921,
      "u8": 7922,
      "bomaz": 7923,
      "assig": 7924,
      "Connect": 7925,
      "metric": 7926,
      "overrides": 7927,
      "Selector": 7928,
      "sekibomaz": 7929,
      "sekibomazic": 7930,
      "bash": 7931,
      "*&": 7932,
      "IE": 7933,
      "uch": 7934,
      "RunLoop": 7935,
      "_string": 7936,
      "Right": 7937,
      "urllib": 7938,
      "e636f6d": 7939,
      "en_US": 7940,
      "Demo": 7941,
      "193": 7942,
      "Random": 7943,
      "rack": 7944,
      "irk": 7945,
      "instances": 7946,
      "Width": 7947,
      "AnnotationBeanPostProcessor": 7948,
      "vg": 7949,
      "Step": 7950,
      "hmac": 7951,
      "zh": 7952,
      "{</": 7953,
      "Seg": 7954,
      "Execute": 7955,
      "DexMerger": 7956,
      "PUBLI": 7957,
      "specification": 7958,
      "tim": 7959,
      "factor": 7960,
      "accept": 7961,
      "problems": 7962,
      "Flask": 7963,
      "$(": 7964,
      "BB": 7965,
      "i_": 7966,
      "simulator": 7967,
      "Gesture": 7968,
      "326": 7969,
      "?<": 7970,
      "Ra": 7971,
      "email": 7972,
      "ncy": 7973,
      "pload": 7974,
      "215": 7975,
      "ezy": 7976,
      "Tests": 7977,
      "Collect": 7978,
      "SingleChildRenderObjectElement": 7979,
      "shadow": 7980,
      "chan": 7981,
      "_batch": 7982,
      "kernels": 7983,
      "compare": 7984,
      "7fb": 7985,
      "multiarray": 7986,
      "ARCH_PATH": 7987,
      "batchnorm": 7988,
      "GENER": 7989,
      "6e": 7990,
      "mong": 7991,
      "242": 7992,
      "302": 7993,
      "succe": 7994,
      "subplot": 7995,
      "S_FOLDER_PATH": 7996,
      "declarative": 7997,
      "explicitly": 7998,
      "PDT": 7999,
      "340": 8000,
      "fam": 8001,
      "author": 8002,
      "become": 8003,
      "350": 8004,
      "nvi": 8005,
      "ctr": 8006,
      "transition": 8007,
      "Now": 8008,
      "_first": 8009,
      "Folder": 8010,
      "Scalar": 8011,
      "0x3": 8012,
      "necessary": 8013,
      "FLUT": 8014,
      "32f": 8015,
      "clou": 8016,
      "audi": 8017,
      "authent": 8018,
      "ESS": 8019,
      "bazel_": 8020,
      "ER_S": 8021,
      "idea": 8022,
      "_error": 8023,
      "UPPORT": 8024,
      "ndebug1": 8025,
      "RPC": 8026,
      "Delegating": 8027,
      "attached": 8028,
      "CRE": 8029,
      "calls": 8030,
      "Issues": 8031,
      "Have": 8032,
      "kirk": 8033,
      "happened": 8034,
      "Because": 8035,
      "vert": 8036,
      "avoid": 8037,
      "recognized": 8038,
      "pprof": 8039,
      "287": 8040,
      "498": 8041,
      "Ent": 8042,
      "Visitor": 8043,
      "gss": 8044,
      "That": 8045,
      "broadcast": 8046,
      "ecy": 8047,
      "pends": 8048,
      "BeanDefinition": 8049,
      "universal2": 8050,
      ",\\": 8051,
      "1c": 8052,
      "MET": 8053,
      "_shape": 8054,
      "people": 8055,
      "Before": 8056,
      "genfiles": 8057,
      ";{{": 8058,
      "anything": 8059,
      "Style": 8060,
      "protected": 8061,
      "infer": 8062,
      "644": 8063,
      "mkdir": 8064,
      "parsing": 8065,
      "e706": 8066,
      "NNPACK": 8067,
      "h7": 8068,
      "⠀⠀": 8069,
      "begin_un": 8070,
      "MainThread": 8071,
      "received": 8072,
      "delta": 8073,
      "ecycle": 8074,
      "2D": 8075,
      "PRE": 8076,
      "338": 8077,
      "throws": 8078,
      "%(": 8079,
      "10000": 8080,
      "SIG": 8081,
      "vas": 8082,
      "968": 8083,
      "Super": 8084,
      "Sequ": 8085,
      "cjs": 8086,
      "scatter": 8087,
      "Programs": 8088,
      "477": 8089,
      "Fork": 8090,
      "Tag": 8091,
      "ever": 8092,
      "369": 8093,
      "postgresql": 8094,
      "incub": 8095,
      "213": 8096,
      "esome": 8097,
      "COMM": 8098,
      "reproduction": 8099,
      "Product": 8100,
      "ries": 8101,
      "SELECT": 8102,
      "RESULTS": 8103,
      "0d": 8104,
      "0e": 8105,
      "GH": 8106,
      "nv": 8107,
      "222": 8108,
      "installation": 8109,
      "f2py": 8110,
      "mq": 8111,
      "canon": 8112,
      "gssapi": 8113,
      "__name__": 8114,
      "161": 8115,
      "REMO": 8116,
      "send_": 8117,
      "selected": 8118,
      "nnpack": 8119,
      "transformDexArchive": 8120,
      "Looking": 8121,
      "dialog": 8122,
      "transformDexArchiveWith": 8123,
      "279": 8124,
      "imports": 8125,
      "relationship": 8126,
      "Entity": 8127,
      "8000": 8128,
      "A1": 8129,
      "billi": 8130,
      "wood": 8131,
      "tmp_install": 8132,
      "secret": 8133,
      "Names": 8134,
      "EXT_": 8135,
      "Intelli": 8136,
      "url_launcher": 8137,
      "345": 8138,
      "CONVERSION": 8139,
      "AI": 8140,
      "pdf": 8141,
      "sever": 8142,
      "0733": 8143,
      "Nov": 8144,
      "674": 8145,
      "transformResources": 8146,
      "WithMergeJavaRes": 8147,
      "transformResourcesWithMergeJavaRes": 8148,
      "ju": 8149,
      "xcode": 8150,
      "days": 8151,
      "default_": 8152,
      "_SE": 8153,
      "DependencyPropertyChangedEventArgs": 8154,
      "xc": 8155,
      "ITY": 8156,
      "Symbol": 8157,
      "_4": 8158,
      "pers": 8159,
      "ApplicationFilterChain": 8160,
      "ffects": 8161,
      "FROM": 8162,
      "tex": 8163,
      "neg": 8164,
      "omit": 8165,
      "Javac": 8166,
      "coverage": 8167,
      "├─┬": 8168,
      "FRAMEWORK": 8169,
      "tention": 8170,
      "zeros": 8171,
      "EXT": 8172,
      "Collection": 8173,
      "DerivedSources": 8174,
      "GRO": 8175,
      "Just": 8176,
      "libm": 8177,
      "moving": 8178,
      "THC": 8179,
      "\");": 8180,
      "RED": 8181,
      "Category": 8182,
      "examining": 8183,
      "Generic": 8184,
      "_names": 8185,
      "FastAPI": 8186,
      "family": 8187,
      ".\\": 8188,
      "vy": 8189,
      "call__": 8190,
      "DataSource": 8191,
      "billiard": 8192,
      "/]": 8193,
      "various": 8194,
      "generateDebug": 8195,
      "mui": 8196,
      "ssian": 8197,
      "Print": 8198,
      "embedding": 8199,
      "WITH": 8200,
      "remoting": 8201,
      "BLAS": 8202,
      "Draw": 8203,
      "GNU": 8204,
      "---&": 8205,
      "libopen": 8206,
      "adamkirk": 8207,
      "matically": 8208,
      "adamkirkwood": 8209,
      "_windows": 8210,
      "162": 8211,
      "------------": 8212,
      "42010": 8213,
      "68747470733": 8214,
      "5B": 8215,
      "ffb": 8216,
      "ansi": 8217,
      "ipped": 8218,
      "Prepare": 8219,
      "_PREFIX": 8220,
      ":(": 8221,
      "ially": 8222,
      "backend_": 8223,
      "Tech": 8224,
      "8080": 8225,
      "}<": 8226,
      "alth": 8227,
      "pair": 8228,
      "scaling": 8229,
      "clar": 8230,
      "comput": 8231,
      "Compl": 8232,
      "zeit": 8233,
      "DecodeJob": 8234,
      "Custom": 8235,
      "DD": 8236,
      "adap": 8237,
      "_sub": 8238,
      "greg": 8239,
      "panicked": 8240,
      "AF": 8241,
      "Schema": 8242,
      "discussion": 8243,
      "Children": 8244,
      "_INCLU": 8245,
      "!==": 8246,
      "+=": 8247,
      "4000": 8248,
      "groupby": 8249,
      "e706e67": 8250,
      "Sho": 8251,
      "rather": 8252,
      "alter": 8253,
      "portfolio": 8254,
      "op_script": 8255,
      "'\"><": 8256,
      "9C": 8257,
      "IF": 8258,
      "182": 8259,
      "agrant": 8260,
      "GROUP": 8261,
      "argv": 8262,
      "{[": 8263,
      "Proble": 8264,
      "Origin": 8265,
      "tracking": 8266,
      "NE": 8267,
      "mg": 8268,
      "sess": 8269,
      "22191": 8270,
      "tarball": 8271,
      "575": 8272,
      "AU": 8273,
      "neut": 8274,
      "Proper": 8275,
      "Bitmap": 8276,
      "6c": 8277,
      "dt": 8278,
      "ater": 8279,
      "Close": 8280,
      "005": 8281,
      "0x2": 8282,
      "Expression": 8283,
      "263": 8284,
      "region": 8285,
      "op_script_version": 8286,
      "(+": 8287,
      "1_": 8288,
      "AIN": 8289,
      "retries": 8290,
      "Float64": 8291,
      "_PRODUCT_": 8292,
      "executed": 8293,
      "FILE_DIR": 8294,
      "strate": 8295,
      "integer": 8296,
      "_inner": 8297,
      "canonical": 8298,
      "PH": 8299,
      "990": 8300,
      "stack_trace": 8301,
      "__webpack": 8302,
      "webview": 8303,
      "\"]": 8304,
      "my_": 8305,
      "segment": 8306,
      "combin": 8307,
      "MODUL": 8308,
      "best": 8309,
      "269": 8310,
      "■■■■■■■■": 8311,
      "-[": 8312,
      "tcp": 8313,
      "strip": 8314,
      "301": 8315,
      "Once": 8316,
      "IntelliJ": 8317,
      "aving": 8318,
      "cde": 8319,
      "recur": 8320,
      "Too": 8321,
      "IPython": 8322,
      "TED": 8323,
      "Char": 8324,
      "layout_": 8325,
      "ization": 8326,
      "lict": 8327,
      "20class": 8328,
      "etion": 8329,
      "Reason": 8330,
      "_helper": 8331,
      "including": 8332,
      "rove": 8333,
      "docker_": 8334,
      "zookeeper": 8335,
      "Nav": 8336,
      "349": 8337,
      "Driver": 8338,
      "649": 8339,
      "243": 8340,
      "355": 8341,
      "Format": 8342,
      "walter": 8343,
      "pickle": 8344,
      "0x0101000": 8345,
      "jre": 8346,
      "utf": 8347,
      "Ansible": 8348,
      "@~": 8349,
      "Rest": 8350,
      "Top": 8351,
      "__call__": 8352,
      "ulture": 8353,
      "float64": 8354,
      "samples": 8355,
      "RET": 8356,
      "moment": 8357,
      "firestore": 8358,
      "TER_": 8359,
      "Apache": 8360,
      "parallel": 8361,
      "Undefined": 8362,
      "7a": 8363,
      "SK": 8364,
      "gke": 8365,
      "TRACE": 8366,
      "autocomplete": 8367,
      "Dest": 8368,
      "tabs": 8369,
      "use_": 8370,
      "378": 8371,
      "defs": 8372,
      "_BACK": 8373,
      "Ilm": 8374,
      "neutral": 8375,
      ".$": 8376,
      "Mapping": 8377,
      "jspa": 8378,
      "intro": 8379,
      "679": 8380,
      "ViewProfile": 8381,
      "Singleton": 8382,
      "Properties": 8383,
      "pytz": 8384,
      "2023": 8385,
      "int32": 8386,
      "gression": 8387,
      "Timestamp": 8388,
      "lookup": 8389,
      "instructions": 8390,
      "confir": 8391,
      "CODE_": 8392,
      "ev": 8393,
      "DEN": 8394,
      "0x000000": 8395,
      "properly": 8396,
      "served": 8397,
      "live": 8398,
      "466": 8399,
      "rc1": 8400,
      "determin": 8401,
      "mock": 8402,
      "ANSIB": 8403,
      "Edit": 8404,
      "405": 8405,
      "jQuery": 8406,
      "mas": 8407,
      "003": 8408,
      "olving": 8409,
      "tials": 8410,
      "389": 8411,
      "serialize": 8412,
      "203": 8413,
      "233": 8414,
      "282": 8415,
      "incubator": 8416,
      "BC": 8417,
      "APPL": 8418,
      "bution": 8419,
      "`.": 8420,
      "timing": 8421,
      "al_": 8422,
      "290": 8423,
      "354": 8424,
      "record": 8425,
      "_on_": 8426,
      "itely": 8427,
      "880": 8428,
      "Initial": 8429,
      "Specification": 8430,
      "snapshot": 8431,
      "hub": 8432,
      "however": 8433,
      "WithJavac": 8434,
      "JavaWithJavac": 8435,
      "wiki": 8436,
      "RIVATE_": 8437,
      "Segment": 8438,
      "arena": 8439,
      "Theme": 8440,
      "Links": 8441,
      "do_": 8442,
      "immutable": 8443,
      "ListableBeanFactory": 8444,
      "FilterWrapper": 8445,
      "ProtocolFilterWrapper": 8446,
      "Culture": 8447,
      "ape": 8448,
      "Display": 8449,
      "Eng": 8450,
      "vp": 8451,
      "encoder": 8452,
      "403": 8453,
      "'])": 8454,
      "TF": 8455,
      "local_": 8456,
      "Vue": 8457,
      "far": 8458,
      "~/.": 8459,
      "spat": 8460,
      "plug": 8461,
      "ACH": 8462,
      "BUILD_DIR": 8463,
      "RUST": 8464,
      "0x12": 8465,
      "22e636f6d": 8466,
      "transforms": 8467,
      "333": 8468,
      ";.&": 8469,
      "_class": 8470,
      "afe": 8471,
      "DefaultListableBeanFactory": 8472,
      "actions": 8473,
      "English": 8474,
      ")::": 8475,
      "Deprec": 8476,
      "javaPre": 8477,
      "Apply": 8478,
      "optimizer": 8479,
      "javaPreCompile": 8480,
      "latency": 8481,
      "153": 8482,
      "locally": 8483,
      "309": 8484,
      "Err": 8485,
      "ReleaseUnitTest": 8486,
      "_token": 8487,
      "erver": 8488,
      "ilers": 8489,
      "ential": 8490,
      "Consumer": 8491,
      "Prop": 8492,
      "Throw": 8493,
      "KeyToken": 8494,
      "SHAR": 8495,
      "pipeline": 8496,
      "camera": 8497,
      "68747470733a2f2f": 8498,
      "spatial": 8499,
      "entire": 8500,
      "prod": 8501,
      "Conv": 8502,
      "344": 8503,
      "_check": 8504,
      "ssss": 8505,
      "ProfileUnitTest": 8506,
      "identity": 8507,
      "evaluate": 8508,
      "vnode": 8509,
      "vagrant": 8510,
      "ancy": 8511,
      "attributes": 8512,
      "urface": 8513,
      "0x0000000000": 8514,
      "odepack": 8515,
      "asset": 8516,
      "zone_": 8517,
      "KS": 8518,
      "lete": 8519,
      "person": 8520,
      "heap": 8521,
      "load_": 8522,
      "305": 8523,
      "priority": 8524,
      "Problem": 8525,
      "Since": 8526,
      "remain": 8527,
      "ensure": 8528,
      "cloud_": 8529,
      "456": 8530,
      "Pointer": 8531,
      "tomcat": 8532,
      "dra": 8533,
      "looking": 8534,
      "PublicKeyToken": 8535,
      "5D": 8536,
      "KE_": 8537,
      "scription": 8538,
      "_MainThread": 8539,
      "flo": 8540,
      "0x00007f": 8541,
      "initialize": 8542,
      "camera_": 8543,
      "ND": 8544,
      "nio": 8545,
      "icate": 8546,
      "entity": 8547,
      "promp": 8548,
      "Mach": 8549,
      "353": 8550,
      "assignable": 8551,
      "slice": 8552,
      "osx": 8553,
      "videoio": 8554,
      "arange": 8555,
      "Develop": 8556,
      "outine": 8557,
      "openssl": 8558,
      "Illegal": 8559,
      "Null": 8560,
      "linter": 8561,
      "SQLA": 8562,
      "takes": 8563,
      "assigned": 8564,
      "i8": 8565,
      "aming": 8566,
      "trouble": 8567,
      "nkr": 8568,
      "aborn": 8569,
      "_manager": 8570,
      "556": 8571,
      "Secon": 8572,
      "Renderer": 8573,
      "LIBRARY_DIR": 8574,
      "mul": 8575,
      "11eb": 8576,
      "374": 8577,
      ".../": 8578,
      "443": 8579,
      "batch_size": 8580,
      "yield": 8581,
      "Spa": 8582,
      "enhance": 8583,
      "~~~": 8584,
      "sky": 8585,
      "APPS_DIR": 8586,
      "cla": 8587,
      "uri": 8588,
      "bounds": 8589,
      "locator": 8590,
      "agent": 8591,
      "Unexpected": 8592,
      "pay": 8593,
      "references": 8594,
      "ARCHS_": 8595,
      "BindingBase": 8596,
      "eigen": 8597,
      "scribe": 8598,
      "dentials": 8599,
      "StackZone": 8600,
      "stack_zone_": 8601,
      "StackZoneSpecification": 8602,
      "stack_zone_specification": 8603,
      "shar": 8604,
      "367": 8605,
      "467": 8606,
      "consistent": 8607,
      ";()": 8608,
      "Kind": 8609,
      "gather": 8610,
      "\">`</": 8611,
      "0x106": 8612,
      "identical": 8613,
      "__webpack_": 8614,
      "0x9": 8615,
      "compilers": 8616,
      "elf": 8617,
      "manually": 8618,
      "gyp": 8619,
      "CONTIN": 8620,
      "THREE": 8621,
      "camera_ml": 8622,
      "jnp": 8623,
      "notify": 8624,
      "645": 8625,
      "conflict": 8626,
      "CONTINUE": 8627,
      "codesandbox": 8628,
      "depth": 8629,
      "6d": 8630,
      "************": 8631,
      "linker": 8632,
      "INFOPLIST": 8633,
      "Argument": 8634,
      "GCC_WARN": 8635,
      "787": 8636,
      "MD": 8637,
      "PIC": 8638,
      "Seriali": 8639,
      "istence": 8640,
      "CS": 8641,
      "Fix": 8642,
      "22247": 8643,
      "365": 8644,
      "shown": 8645,
      "COL": 8646,
      "Created": 8647,
      "!&": 8648,
      "\";": 8649,
      "0D": 8650,
      "NAT": 8651,
      "slow": 8652,
      "imum": 8653,
      "diagnostic": 8654,
      "polyfill": 8655,
      "Wl": 8656,
      "plnkr": 8657,
      "303": 8658,
      "Math": 8659,
      "keyboard": 8660,
      "Params": 8661,
      "0x00": 8662,
      "lying": 8663,
      "388": 8664,
      "0x7f01a6e000": 8665,
      "scala": 8666,
      "PST": 8667,
      "className": 8668,
      "uninstall": 8669,
      "umath": 8670,
      ":\\\\": 8671,
      "AttributeError": 8672,
      "StatefulElement": 8673,
      "1m": 8674,
      "progress": 8675,
      "DIRE": 8676,
      ">-&": 8677,
      ">)<": 8678,
      "ai": 8679,
      "choice": 8680,
      "category": 8681,
      "Wunused": 8682,
      "handled": 8683,
      "customize": 8684,
      "tutorial": 8685,
      "prevent": 8686,
      "368": 8687,
      "partic": 8688,
      "scalar": 8689,
      "uous": 8690,
      "Logger": 8691,
      "instruction": 8692,
      "ChannelHandlerContext": 8693,
      "Bootstrap": 8694,
      "_next": 8695,
      "ECTION": 8696,
      "Override": 8697,
      "Validator": 8698,
      "Lif": 8699,
      "com_": 8700,
      "Toolbox": 8701,
      ":../": 8702,
      "_libs": 8703,
      "han": 8704,
      "183": 8705,
      "261": 8706,
      "ive_": 8707,
      "relu": 8708,
      "([[": 8709,
      "Language": 8710,
      "cloud_firestore": 8711,
      "fno": 8712,
      "_package": 8713,
      "zk": 8714,
      "terry": 8715,
      "__version": 8716,
      "servable": 8717,
      "KB": 8718,
      "978": 8719,
      "_and_": 8720,
      "Eigen": 8721,
      "_debug": 8722,
      "gb": 8723,
      "lproj": 8724,
      "devel": 8725,
      "bul": 8726,
      "Def": 8727,
      "Apps": 8728,
      "asso": 8729,
      "EXECUT": 8730,
      "SQLAlchemy": 8731,
      "KL": 8732,
      "team": 8733,
      "atory": 8734,
      "ithub": 8735,
      "=====": 8736,
      "Entry": 8737,
      "terryb": 8738,
      "cython": 8739,
      "inja2": 8740,
      "GR": 8741,
      "dns": 8742,
      "390": 8743,
      "Completed": 8744,
      "express": 8745,
      "()\"><": 8746,
      "Conduct": 8747,
      "Mapper": 8748,
      "Widgets": 8749,
      "rupted": 8750,
      ">#": 8751,
      "bn": 8752,
      "hu": 8753,
      "289": 8754,
      "AGE_": 8755,
      ")=(": 8756,
      "Vic": 8757,
      "_array": 8758,
      "go1": 8759,
      "281": 8760,
      "Descriptor": 8761,
      "several": 8762,
      "seq": 8763,
      "embedded": 8764,
      ";).": 8765,
      "channels": 8766,
      "998": 8767,
      "474": 8768,
      "329": 8769,
      "SHE": 8770,
      "NAM": 8771,
      "_graph": 8772,
      "hl": 8773,
      "seaborn": 8774,
      "loads": 8775,
      "557": 8776,
      "azure": 8777,
      "Composite": 8778,
      "urllib3": 8779,
      "Lock": 8780,
      "keyword": 8781,
      "Disk": 8782,
      "gives": 8783,
      "]\"><": 8784,
      "_con": 8785,
      "0x8": 8786,
      "matches": 8787,
      "2c": 8788,
      "Github": 8789,
      "Dep": 8790,
      "__version__": 8791,
      "PT": 8792,
      "_n": 8793,
      "32d": 8794,
      "STAT": 8795,
      "FLUTTER_": 8796,
      "Cra": 8797,
      "Camp": 8798,
      "IT_": 8799,
      "UID": 8800,
      "2012": 8801,
      "legacy": 8802,
      "Loading": 8803,
      "NATIVE_": 8804,
      "Sof": 8805,
      "inv": 8806,
      "sections": 8807,
      "_mask": 8808,
      "accepted": 8809,
      "'//": 8810,
      "2x": 8811,
      "Did": 8812,
      "aut": 8813,
      "los": 8814,
      "apprec": 8815,
      "backup": 8816,
      "corner": 8817,
      "Logging": 8818,
      ",-": 8819,
      "609": 8820,
      "partial": 8821,
      "apiserver": 8822,
      "_url": 8823,
      "goto": 8824,
      "lr": 8825,
      "thers": 8826,
      "commons": 8827,
      "spread": 8828,
      "0x7fb": 8829,
      "allows": 8830,
      "STRING": 8831,
      "amples": 8832,
      "browsers": 8833,
      "typings": 8834,
      "separate": 8835,
      "3F": 8836,
      "dims": 8837,
      "Challenge": 8838,
      "???": 8839,
      "Development": 8840,
      "olute": 8841,
      "_ids": 8842,
      "sock": 8843,
      "MAKE_": 8844,
      "broken": 8845,
      "b000": 8846,
      "0000000": 8847,
      "going": 8848,
      "initialization": 8849,
      "distribution": 8850,
      "screenshots": 8851,
      "42010af": 8852,
      "ece": 8853,
      "maven": 8854,
      "major": 8855,
      "c6f": 8856,
      "primitive": 8857,
      "Need": 8858,
      "vc": 8859,
      "pyenv": 8860,
      "569": 8861,
      "_ptr": 8862,
      "_run_": 8863,
      "TYP": 8864,
      "G_": 8865,
      "476": 8866,
      "AVAIL": 8867,
      "stream_executor": 8868,
      "literal": 8869,
      "ess": 8870,
      "repl": 8871,
      "encounter": 8872,
      "253": 8873,
      "mi1": 8874,
      "352": 8875,
      "CONN": 8876,
      "NET": 8877,
      "find_": 8878,
      "webkit": 8879,
      "threads": 8880,
      "CONFIGURATION": 8881,
      "455": 8882,
      "tan": 8883,
      "dark": 8884,
      "ragon": 8885,
      "chunks": 8886,
      "Details": 8887,
      "mux_client": 8888,
      "Xml": 8889,
      "entries": 8890,
      "likely": 8891,
      "Pref": 8892,
      "minutes": 8893,
      "Unable": 8894,
      "clarity": 8895,
      "Non": 8896,
      "Syn": 8897,
      "bon": 8898,
      "rpath": 8899,
      "666": 8900,
      "happening": 8901,
      "HOST": 8902,
      "inflate": 8903,
      "circle": 8904,
      "difference": 8905,
      "0c": 8906,
      "Jo": 8907,
      "AppClasses": 8908,
      "Order": 8909,
      "categor": 8910,
      "WIF": 8911,
      "presets": 8912,
      "volumes": 8913,
      "Launcher": 8914,
      "Aug": 8915,
      "uuid": 8916,
      "week": 8917,
      "Generated": 8918,
      "IlmImf": 8919,
      "PAR": 8920,
      "cxx": 8921,
      "stub": 8922,
      "cade": 8923,
      "devtools": 8924,
      "5120": 8925,
      "Height": 8926,
      "neigh": 8927,
      "493": 8928,
      "DBC": 8929,
      "ZK": 8930,
      "_time": 8931,
      "jpeg": 8932,
      "typeck": 8933,
      "DEF": 8934,
      "implements": 8935,
      "Publish": 8936,
      "_exception": 8937,
      "xra": 8938,
      "conc": 8939,
      "385": 8940,
      "580": 8941,
      "686": 8942,
      "Brid": 8943,
      "maxr": 8944,
      "certain": 8945,
      "a000": 8946,
      "worl": 8947,
      "NativeMethodAccessorImpl": 8948,
      ";!--": 8949,
      "PTI": 8950,
      "grad_": 8951,
      "Static": 8952,
      "prototypes": 8953,
      "\">%</": 8954,
      "dirname": 8955,
      "ff3": 8956,
      "WH": 8957,
      "_box": 8958,
      "in_": 8959,
      "radi": 8960,
      "extern": 8961,
      "ONL": 8962,
      "496": 8963,
      "freeze": 8964,
      "fficient": 8965,
      "DNDEBUG": 8966,
      "=../": 8967,
      "urally": 8968,
      "scor": 8969,
      "community": 8970,
      "Ignore": 8971,
      "$/": 8972,
      "_local": 8973,
      "firefox": 8974,
      "CUPTI": 8975,
      "goroutine": 8976,
      "nate": 8977,
      "sit": 8978,
      "imported": 8979,
      ").<": 8980,
      "Yes": 8981,
      "097": 8982,
      "THON": 8983,
      "PRODUCT_": 8984,
      "CSS": 8985,
      "14774": 8986,
      "Webpack": 8987,
      "7_": 8988,
      "him": 8989,
      "hour": 8990,
      "050": 8991,
      "celerate": 8992,
      "fixes": 8993,
      "waypoint": 8994,
      "................................................................................................................................": 8995,
      "npysort": 8996,
      "_item": 8997,
      "_format": 8998,
      "gp": 8999,
      "absolute": 9000,
      "seen": 9001,
      "370": 9002,
      "variant": 9003,
      "hit": 9004,
      "xander": 9005,
      "647": 9006,
      "StudioProjects": 9007,
      "^^^^^^^^": 9008,
      "dialects": 9009,
      "PB": 9010,
      "VAR": 9011,
      "252": 9012,
      "cas": 9013,
      "agree": 9014,
      "answer": 9015,
      "collections": 9016,
      "reshape": 9017,
      "3657": 9018,
      "457": 9019,
      "Stateless": 9020,
      "JavaScript": 9021,
      "convolution": 9022,
      "Record": 9023,
      ";\",": 9024,
      "Fore": 9025,
      "overrid": 9026,
      "7fa26": 9027,
      "mazon": 9028,
      "strong_mode_implicit_dynamic_parameter": 9029,
      "hb": 9030,
      "timer": 9031,
      "Attr": 9032,
      "ordin": 9033,
      ":{": 9034,
      "eed": 9035,
      "yo": 9036,
      "////": 9037,
      "PUT": 9038,
      "SYM": 9039,
      "occurs": 9040,
      "rust_try": 9041,
      ";--": 9042,
      "wt": 9043,
      "2227": 9044,
      "debug2": 9045,
      "visibility": 9046,
      "FLAGS": 9047,
      "rnn": 9048,
      "ines": 9049,
      "enough": 9050,
      "648": 9051,
      "net_": 9052,
      "installing": 9053,
      "features2d": 9054,
      "Should": 9055,
      "]],": 9056,
      "explor": 9057,
      "rev": 9058,
      "policy": 9059,
      "twice": 9060,
      "ZE": 9061,
      "term": 9062,
      "travis": 9063,
      "Interceptor": 9064,
      "Executer": 9065,
      "Added": 9066,
      "DEVICE_": 9067,
      "Destroy": 9068,
      "Ke": 9069,
      "hip": 9070,
      "beat": 9071,
      "getter": 9072,
      "functional": 9073,
      "878": 9074,
      "/%": 9075,
      "509": 9076,
      "sf": 9077,
      "Self": 9078,
      "_UN": 9079,
      "bz": 9080,
      "flex": 9081,
      "ube": 9082,
      "CoreServices": 9083,
      "handlers": 9084,
      "future_impl": 9085,
      "━━━━": 9086,
      "_src": 9087,
      "_function": 9088,
      "rf": 9089,
      "470": 9090,
      "Typed": 9091,
      "_flutter": 9092,
      "exported": 9093,
      "221": 9094,
      "867": 9095,
      "Docker": 9096,
      "n1": 9097,
      "adds": 9098,
      "power": 9099,
      "hold": 9100,
      "BA": 9101,
      "lat": 9102,
      "orter": 9103,
      "automatically": 9104,
      "SchedulerBinding": 9105,
      "4687": 9106,
      "680": 9107,
      "globals": 9108,
      "destroy": 9109,
      "CELERY_": 9110,
      "Affects": 9111,
      "Tab": 9112,
      "delay": 9113,
      "coa": 9114,
      "libswift": 9115,
      "276": 9116,
      "dateutil": 9117,
      "Shape": 9118,
      "560": 9119,
      "regular": 9120,
      "_pthread_body": 9121,
      "rank": 9122,
      "Reg": 9123,
      "[:,": 9124,
      "RF": 9125,
      "h8": 9126,
      "0x11": 9127,
      "1737": 9128,
      "READ": 9129,
      "bernate": 9130,
      "AndroidStudioProjects": 9131,
      "fr": 9132,
      "uation": 9133,
      "stu": 9134,
      "mine": 9135,
      "450": 9136,
      "Checklist": 9137,
      "queue_test": 9138,
      "Cor": 9139,
      "pch_": 9140,
      "ackson": 9141,
      "perio": 9142,
      "outcome": 9143,
      "478": 9144,
      "Generate_": 9145,
      "rbx": 9146,
      "jl_value": 9147,
      "Password": 9148,
      "guess": 9149,
      "pch_Generate_": 9150,
      "'',": 9151,
      "_bazel_": 9152,
      "Analy": 9153,
      "PoolWorker": 9154,
      "ragment": 9155,
      "8s": 9156,
      "gms": 9157,
      "adj": 9158,
      "chestrator": 9159,
      "task_id": 9160,
      "prone": 9161,
      "994": 9162,
      "hardware": 9163,
      "noticed": 9164,
      "desi": 9165,
      "jl_value_t": 9166,
      "P_": 9167,
      "doFilter": 9168,
      "559": 9169,
      "feature_": 9170,
      ">();": 9171,
      "dag_id": 9172,
      "Enum": 9173,
      "Gif": 9174,
      "_dist": 9175,
      "283": 9176,
      "easy": 9177,
      "6666": 9178,
      "FROM_": 9179,
      "1234": 9180,
      "amer": 9181,
      "COPY": 9182,
      "player": 9183,
      "Creating": 9184,
      "xr": 9185,
      "\">/*": 9186,
      "ought": 9187,
      "4_": 9188,
      "routes": 9189,
      "ES_DIR": 9190,
      "agg": 9191,
      "modal": 9192,
      "Write": 9193,
      "diagnostics": 9194,
      "7d": 9195,
      "SN": 9196,
      "}/": 9197,
      "rody": 9198,
      "pyter": 9199,
      "visitor": 9200,
      "Int32": 9201,
      "gifs": 9202,
      "rodydavis": 9203,
      "esca": 9204,
      "website": 9205,
      "sha512": 9206,
      "opencv_core": 9207,
      "show_": 9208,
      "callbacks": 9209,
      "PRODUCT": 9210,
      "appropr": 9211,
      "Aw": 9212,
      "fcc": 9213,
      "hg": 9214,
      "Filename": 9215,
      "tested": 9216,
      "_sig": 9217,
      "7fa17": 9218,
      "carlos": 9219,
      "Red": 9220,
      "aes": 9221,
      "er_": 9222,
      "desk": 9223,
      "459": 9224,
      "cancel": 9225,
      "Elements": 9226,
      "FILE": 9227,
      "builds": 9228,
      "_SY": 9229,
      "stdin": 9230,
      "hn_app": 9231,
      "SCRIP": 9232,
      "mongo": 9233,
      "Master": 9234,
      "target1": 9235,
      "startup": 9236,
      "});\"><": 9237,
      ";./": 9238,
      "_import": 9239,
      "ulate": 9240,
      "posix": 9241,
      "webserver": 9242,
      "Mozilla": 9243,
      "0x00007000": 9244,
      ")\"": 9245,
      "[+": 9246,
      "_tensor": 9247,
      "leve": 9248,
      "scr": 9249,
      "Mount": 9250,
      "debug1": 9251,
      "================================================================": 9252,
      "primary_key": 9253,
      "ated_": 9254,
      "BIN": 9255,
      "Board": 9256,
      "Atta": 9257,
      "DY": 9258,
      "depends": 9259,
      "495": 9260,
      "appropriate": 9261,
      "6f": 9262,
      ":=": 9263,
      "r14": 9264,
      "\">~": 9265,
      "scall": 9266,
      "ActivityThread": 9267,
      "Prepared": 9268,
      "dge": 9269,
      "r12": 9270,
      "pymysql": 9271,
      "anders": 9272,
      "alize": 9273,
      "structurally": 9274,
      "===========================": 9275,
      "alternative": 9276,
      "_BACKTRACE": 9277,
      "Alt": 9278,
      "MKL": 9279,
      "proposed": 9280,
      "aaa": 9281,
      "virtualenv": 9282,
      "316": 9283,
      "Jul": 9284,
      "workaround": 9285,
      "rendered": 9286,
      "blocks": 9287,
      "c_allocator": 9288,
      "armv7": 9289,
      "animation": 9290,
      "DelegatingMethodAccessorImpl": 9291,
      "Dar": 9292,
      "jsp": 9293,
      "r13": 9294,
      "Threading": 9295,
      "prompt": 9296,
      "repr": 9297,
      "minimal": 9298,
      "ft2": 9299,
      "antile": 9300,
      "Bound": 9301,
      "repeat": 9302,
      "APPLE_": 9303,
      "RUST_BACKTRACE": 9304,
      "reply": 9305,
      "loaders": 9306,
      "'},": 9307,
      "stration": 9308,
      "structurally_": 9309,
      "ik": 9310,
      "construct": 9311,
      "mpty": 9312,
      "callable": 9313,
      "Body": 9314,
      "md5": 9315,
      "GENERATE_": 9316,
      "322": 9317,
      "\">\"@": 9318,
      "vode": 9319,
      "transformNative": 9320,
      "Codec": 9321,
      "Normal": 9322,
      "transformNativeLibs": 9323,
      "UES": 9324,
      "fed": 9325,
      "mpeg": 9326,
      "578": 9327,
      "accounts": 9328,
      "WebView": 9329,
      "MBOL": 9330,
      "320": 9331,
      "_db": 9332,
      "wan": 9333,
      "togg": 9334,
      "567": 9335,
      "/../../": 9336,
      "mixed": 9337,
      "_amd64": 9338,
      "orph": 9339,
      "lick": 9340,
      "moke": 9341,
      "doctor": 9342,
      "Remove": 9343,
      "outside": 9344,
      "555": 9345,
      "initializer": 9346,
      "TOOLS_DIR": 9347,
      "bas": 9348,
      "dm": 9349,
      "rub": 9350,
      "oriz": 9351,
      "0x100": 9352,
      "395": 9353,
      "!!!!!!!!": 9354,
      "nist": 9355,
      "r15": 9356,
      "965": 9357,
      "Arti": 9358,
      "Reading": 9359,
      "strong_mode_implicit_dynamic_return": 9360,
      "RPATH": 9361,
      "_field": 9362,
      "libflutter": 9363,
      "======": 9364,
      "231": 9365,
      "Bool": 9366,
      "ee0": 9367,
      "AVX2": 9368,
      "Eval_EvalFrame": 9369,
      "pluggy": 9370,
      ")/": 9371,
      "1653": 9372,
      "AppleInternal": 9373,
      "lucene": 9374,
      "ahmed": 9375,
      "APPLE_INTERN": 9376,
      "lp": 9377,
      "icle": 9378,
      "0x7fe": 9379,
      "unused_import": 9380,
      "={{": 9381,
      "Jan": 9382,
      "TL": 9383,
      "sile": 9384,
      "worked": 9385,
      "acity": 9386,
      "Binary": 9387,
      "bundleAppClasses": 9388,
      "DERIVE": 9389,
      "affected": 9390,
      "ARCHS_STANDAR": 9391,
      "DERIVED_": 9392,
      "_session": 9393,
      "design": 9394,
      "ranlib": 9395,
      "sns": 9396,
      "Cons": 9397,
      "485": 9398,
      "t_order": 9399,
      "sm_": 9400,
      "Publishing": 9401,
      "\"-": 9402,
      "',<": 9403,
      "0x000000000": 9404,
      "threads_": 9405,
      "operations": 9406,
      "_sum": 9407,
      "panicking": 9408,
      "REMOVE_": 9409,
      "world_": 9410,
      "Audio": 9411,
      "_on": 9412,
      "_object": 9413,
      "jet": 9414,
      "comments": 9415,
      "aliases": 9416,
      "COMPON": 9417,
      "continue": 9418,
      "GestureBinding": 9419,
      "ARCH_PATHS": 9420,
      "_SEARCH_PATHS": 9421,
      "invocation": 9422,
      "7fa10": 9423,
      "_score": 9424,
      "jy": 9425,
      "conch": 9426,
      "While": 9427,
      "completed": 9428,
      "InputStream": 9429,
      "dotnet": 9430,
      "Dial": 9431,
      "Json": 9432,
      "JDBC": 9433,
      "_core": 9434,
      "tap": 9435,
      "decoder": 9436,
      "end_": 9437,
      "urther": 9438,
      "alive": 9439,
      "...)": 9440,
      "rotor_": 9441,
      "misc": 9442,
      "OUTPUT_": 9443,
      "inflateWidget": 9444,
      "rotor_flutter": 9445,
      "_x": 9446,
      "verage": 9447,
      "indexing": 9448,
      "holder": 9449,
      "constraints": 9450,
      "important": 9451,
      "479": 9452,
      "target_": 9453,
      "444": 9454,
      "calcu": 9455,
      "pkgs": 9456,
      "IZE": 9457,
      "PLATFORM_DEVELOPER_": 9458,
      "9F": 9459,
      "Basic": 9460,
      "Anim": 9461,
      "df2": 9462,
      "simply": 9463,
      "xxxx": 9464,
      "registered": 9465,
      "********************************************************************************************************************************": 9466,
      "Rule": 9467,
      "_lib": 9468,
      "14098": 9469,
      "heet": 9470,
      "pher": 9471,
      "7f9": 9472,
      "SSE4": 9473,
      "Crash": 9474,
      "√]": 9475,
      "utdown": 9476,
      "styled": 9477,
      "mkl_core": 9478,
      "health": 9479,
      "SHARED_": 9480,
      "Bridge": 9481,
      "Long": 9482,
      "zlib": 9483,
      "discovery": 9484,
      "logic": 9485,
      "cbrack": 9486,
      "cbracken": 9487,
      "=['": 9488,
      "local_U": 9489,
      "Enabled": 9490,
      "haps": 9491,
      "407": 9492,
      "calib": 9493,
      "LANGU": 9494,
      "ons": 9495,
      "oting": 9496,
      "predict": 9497,
      "user_id": 9498,
      "488": 9499,
      "###": 9500,
      "IPH": 9501,
      "Us": 9502,
      "nul": 9503,
      "thought": 9504,
      "_filter": 9505,
      "navbar": 9506,
      "stuff": 9507,
      "algorithm": 9508,
      "Repository": 9509,
      "config_U": 9510,
      "local_Uconfig_U": 9511,
      "local_Uconfig_Ucuda_S": 9512,
      "didate": 9513,
      "Permission": 9514,
      "whole": 9515,
      "Navig": 9516,
      ";],": 9517,
      "numeric": 9518,
      "fixture": 9519,
      "URT": 9520,
      "preparePUBLI": 9521,
      "kernel_": 9522,
      "SHED_": 9523,
      "preparePUBLISHED_": 9524,
      "\")</": 9525,
      "OF": 9526,
      "_all": 9527,
      "966": 9528,
      "Downloading": 9529,
      "CFRunLoop": 9530,
      "Em": 9531,
      "URE": 9532,
      "aj": 9533,
      "İbra": 9534,
      "\">^": 9535,
      "vexra": 9536,
      "ltip": 9537,
      "neck": 9538,
      "Exchange": 9539,
      "credentials": 9540,
      "googleapis": 9541,
      "Installed": 9542,
      "bottle": 9543,
      "BOZK": 9544,
      "İbrahim": 9545,
      "BOZKURT": 9546,
      "343": 9547,
      "Errors": 9548,
      "statuses": 9549,
      "attempt": 9550,
      "BF": 9551,
      "_provider": 9552,
      "upload": 9553,
      "dead": 9554,
      "Deploy": 9555,
      "568": 9556,
      "ALLE": 9557,
      "JECT": 9558,
      "HAVE_CXX_": 9559,
      "DexMergerFor": 9560,
      "hdf": 9561,
      "atched": 9562,
      "dez": 9563,
      "ends": 9564,
      "aggreg": 9565,
      "475": 9566,
      "markdown": 9567,
      "Sci": 9568,
      "_env": 9569,
      "deleg": 9570,
      "ForPublishing": 9571,
      "e5c": 9572,
      "SIZE": 9573,
      "stage1": 9574,
      "Utilities": 9575,
      "rpm": 9576,
      "tg": 9577,
      "006": 9578,
      "INIT": 9579,
      "ONN": 9580,
      "routing": 9581,
      "^~~~~": 9582,
      "anic": 9583,
      "starts": 9584,
      "777": 9585,
      "upgrading": 9586,
      "RS": 9587,
      "module_": 9588,
      "558": 9589,
      "Domain": 9590,
      "Mono": 9591,
      "_rootRun": 9592,
      "0x01010003": 9593,
      "004": 9594,
      "351": 9595,
      "tracker": 9596,
      "041": 9597,
      "871": 9598,
      "576": 9599,
      "Background": 9600,
      "Save": 9601,
      "_dim": 9602,
      "pod_": 9603,
      "241": 9604,
      "updates": 9605,
      "VIR": 9606,
      "IDEA": 9607,
      "GMT": 9608,
      "PK": 9609,
      "har": 9610,
      "dire": 9611,
      "Cocoa": 9612,
      "CommandLine": 9613,
      "dashboard": 9614,
      "Final": 9615,
      "Fetcher": 9616,
      "minor": 9617,
      "validator": 9618,
      "bors": 9619,
      "isinstance": 9620,
      "__table": 9621,
      "compar": 9622,
      ">/<": 9623,
      "bottleneck": 9624,
      "Middle": 9625,
      "PM": 9626,
      "cert": 9627,
      "h6": 9628,
      "kbd": 9629,
      "sper": 9630,
      "panel": 9631,
      "LIBRAR": 9632,
      "IMP": 9633,
      "ste": 9634,
      "orld": 9635,
      "errorprone": 9636,
      "Duplicates": 9637,
      "OURCE": 9638,
      "```": 9639,
      "Editor": 9640,
      "Folders": 9641,
      "strategy": 9642,
      "446": 9643,
      "rated": 9644,
      "��������": 9645,
      "Qt": 9646,
      "w_": 9647,
      "489": 9648,
      "[]}": 9649,
      "7c": 9650,
      "voca": 9651,
      "transformResourcesWithMergeJavaResFor": 9652,
      "particular": 9653,
      "Console": 9654,
      "operating": 9655,
      "update_": 9656,
      "JniLibs": 9657,
      "WIN": 9658,
      "jest": 9659,
      "v6": 9660,
      "wm": 9661,
      "door": 9662,
      "improve": 9663,
      "willing": 9664,
      "ForkPoolWorker": 9665,
      "]))": 9666,
      "ntd": 9667,
      "rocess": 9668,
      "toString": 9669,
      "prefer": 9670,
      "joblib": 9671,
      "minimum": 9672,
      "type_structurally_": 9673,
      "ntdll": 9674,
      "+-": 9675,
      "ano": 9676,
      "ording": 9677,
      "Location": 9678,
      "views": 9679,
      "sha2": 9680,
      "datas": 9681,
      "xef": 9682,
      "interfaces": 9683,
      "astype": 9684,
      "OBJC_": 9685,
      "Screenshots": 9686,
      "Span": 9687,
      "jw": 9688,
      "ffee": 9689,
      "...&": 9690,
      "maps": 9691,
      "FactoryBean": 9692,
      "mediate": 9693,
      "infra": 9694,
      "_resolve": 9695,
      "fPIC": 9696,
      "Caffe2": 9697,
      "Maybe": 9698,
      "Signing": 9699,
      "later": 9700,
      "ports": 9701,
      "abc": 9702,
      "frames": 9703,
      "(`": 9704,
      "SO": 9705,
      "xbd": 9706,
      "223": 9707,
      "activate": 9708,
      "26type_structurally_": 9709,
      "includes": 9710,
      "contains1": 9711,
      "linux64": 9712,
      "Tasks": 9713,
      "Dict": 9714,
      "CV_": 9715,
      "profiling": 9716,
      "_ZN6middle2ty26type_structurally_": 9717,
      "decorators": 9718,
      "confirm": 9719,
      "_ZN6middle2ty26type_structurally_contains1": 9720,
      "EF": 9721,
      "Empty": 9722,
      "incorrect": 9723,
      "studio": 9724,
      "buildworker": 9725,
      "tact": 9726,
      "variance": 9727,
      "Many": 9728,
      "Rpc": 9729,
      "UG": 9730,
      "seman": 9731,
      "tency": 9732,
      "Unrecognized": 9733,
      "libcudnn": 9734,
      "████████████████": 9735,
      "Sim": 9736,
      "xbf": 9737,
      "curren": 9738,
      "celery_1": 9739,
      "ChannelPipeline": 9740,
      "HAS": 9741,
      "_options": 9742,
      "fq": 9743,
      "lan": 9744,
      "}),": 9745,
      "-----------": 9746,
      "_ZN6middle2ty26type_structurally_contains17_": 9747,
      "325": 9748,
      "['/": 9749,
      "commits": 9750,
      "383": 9751,
      "DefaultChannelPipeline": 9752,
      "lee": 9753,
      "465": 9754,
      "libjulia": 9755,
      "cach": 9756,
      "CodeCamp": 9757,
      "13877": 9758,
      "gap": 9759,
      "hh": 9760,
      "i64": 9761,
      "satis": 9762,
      "memo": 9763,
      "aper": 9764,
      "libstd": 9765,
      "shm": 9766,
      "removing": 9767,
      "AbstractChannelHandlerContext": 9768,
      "mergeDebug": 9769,
      "PYTHON": 9770,
      "Total": 9771,
      "alk": 9772,
      "bfc_allocator": 9773,
      "originally": 9774,
      "orizont": 9775,
      "Cv": 9776,
      "regenerator": 9777,
      "four": 9778,
      "Star": 9779,
      "DIS": 9780,
      "consu": 9781,
      "_runner": 9782,
      "Discovery": 9783,
      "black": 9784,
      "Ignor": 9785,
      "omitted": 9786,
      "troublesho": 9787,
      "came": 9788,
      "quite": 9789,
      "compose": 9790,
      "locate": 9791,
      "corrupted": 9792,
      "gramming": 9793,
      "multiprocess": 9794,
      "DT_": 9795,
      "abbre": 9796,
      "22e636f6d2f6": 9797,
      "ings": 9798,
      "550": 9799,
      "3333": 9800,
      "general": 9801,
      "SpringApplication": 9802,
      "BASE": 9803,
      "intrin": 9804,
      "arded": 9805,
      "activation": 9806,
      "endpoint": 9807,
      "Locali": 9808,
      "2e676": 9809,
      "]),": 9810,
      "reload": 9811,
      "cour": 9812,
      "273": 9813,
      "089": 9814,
      "fe0": 9815,
      "debug3": 9816,
      "Extensions": 9817,
      "Bazel": 9818,
      "745": 9819,
      "EMB": 9820,
      "overlay": 9821,
      "775": 9822,
      "loader_path": 9823,
      "INSTALLE": 9824,
      "ExtensionLoader": 9825,
      "C1": 9826,
      "O2": 9827,
      "Sql": 9828,
      "Sample": 9829,
      "enar": 9830,
      "openmp": 9831,
      "979": 9832,
      "Latency": 9833,
      "intel_": 9834,
      "making": 9835,
      "E0": 9836,
      "retri": 9837,
      "2010": 9838,
      "issue_": 9839,
      "Sequence": 9840,
      "A4": 9841,
      "cwd": 9842,
      "fork": 9843,
      "Matrix": 9844,
      "bind11": 9845,
      "dropdown": 9846,
      "syscall": 9847,
      "ISSUE": 9848,
      ".],": 9849,
      "SEC": 9850,
      "preference": 9851,
      "7564": 9852,
      "desktop": 9853,
      "sometimes": 9854,
      "Nodes": 9855,
      "terminated": 9856,
      "Installing": 9857,
      "shortcut": 9858,
      "applied": 9859,
      "272": 9860,
      "associ": 9861,
      "AVAILABLE": 9862,
      "Ide": 9863,
      "TM": 9864,
      "Upd": 9865,
      "mic": 9866,
      "doob": 9867,
      "Include": 9868,
      "232": 9869,
      "_pthread_start": 9870,
      "subprocess": 9871,
      "Reflect": 9872,
      "bk": 9873,
      "ica": 9874,
      "activity": 9875,
      "487": 9876,
      "976": 9877,
      "03f": 9878,
      "685": 9879,
      "ReturnValue": 9880,
      "837": 9881,
      "_main": 9882,
      "_parse": 9883,
      "tems": 9884,
      "programs": 9885,
      "getBean": 9886,
      "Named": 9887,
      "Guide": 9888,
      "mrdoob": 9889,
      "Original": 9890,
      "toggle": 9891,
      "amazon": 9892,
      "++)": 9893,
      "tower_1": 9894,
      "PreparedStatement": 9895,
      "0s": 9896,
      "_backend": 9897,
      "ctrl": 9898,
      "itter": 9899,
      "888": 9900,
      "Active": 9901,
      "RootVisual": 9902,
      "limits": 9903,
      "_map": 9904,
      "reject": 9905,
[...]
